<unk>	0
▁t	-0
in	-1
▁a	-2
he	-3
re	-4
on	-5
▁the	-6
er	-7
at	-8
en	-9
▁c	-10
it	-11
▁s	-12
an	-13
▁o	-14
es	-15
al	-16
▁w	-17
is	-18
▁p	-19
or	-20
▁in	-21
nd	-22
▁b	-23
▁f	-24
ing	-25
ed	-26
ic	-27
▁to	-28
ion	-29
ar	-30
▁m	-31
ro	-32
▁of	-33
▁and	-34
▁d	-35
ou	-36
ent	-37
▁e	-38
st	-39
▁th	-40
le	-41
▁re	-42
▁h	-43
om	-44
il	-45
▁n	-46
ve	-47
ly	-48
as	-49
▁g	-50
▁l	-51
ct	-52
▁be	-53
ation	-54
ut	-55
ol	-56
▁that	-57
▁is	-58
▁C	-59
im	-60
▁T	-61
▁A	-62
ce	-63
▁de	-64
ver	-65
ur	-66
ad	-67
et	-68
ld	-69
ment	-70
ot	-71
▁for	-72
ig	-73
▁I	-74
se	-75
ies	-76
id	-77
▁it	-78
▁on	-79
ow	-80
▁st	-81
nt	-82
▁E	-83
ra	-84
ch	-85
ill	-86
▁–	-87
▁B	-88
ate	-89
▁pro	-90
▁con	-91
▁u	-92
ir	-93
pe	-94
ul	-95
hin	-96
ore	-97
▁S	-98
▁as	-99
est	-100
lo	-101
ers	-102
ity	-103
▁cou	-104
con	-105
▁Chin	-106
ith	-107
th	-108
▁r	-109
▁U	-110
▁al	-111
▁wh	-112
ge	-113
▁The	-114
▁ex	-115
▁su	-116
her	-117
ter	-118
▁ne	-119
▁with	-120
ial	-121
ab	-122
▁an	-123
res	-124
us	-125
ay	-126
ort	-127
conom	-128
ain	-129
ive	-130
▁are	-131
ess	-132
▁com	-133
▁China	-134
ist	-135
▁econom	-136
iv	-137
▁ha	-138
if	-139
▁pol	-140
uro	-141
▁by	-142
▁has	-143
ke	-144
am	-145
▁wor	-146
▁not	-147
▁M	-148
▁we	-149
em	-150
▁count	-151
▁P	-152
oc	-153
▁se	-154
▁sh	-155
▁le	-156
ould	-157
pp	-158
ac	-159
▁have	-160
▁countr	-161
▁en	-162
▁2	-163
▁W	-164
▁will	-165
ust	-166
um	-167
and	-168
ia	-169
op	-170
qu	-171
▁v	-172
▁“	-173
rom	-174
ical	-175
▁its	-176
ap	-177
▁Euro	-178
igh	-179
ant	-180
▁im	-181
▁Europe	-182
over	-183
▁F	-184
▁tr	-185
ost	-186
▁G	-187
▁from	-188
iz	-189
▁y	-190
▁more	-191
art	-192
▁at	-193
ure	-194
ast	-195
ions	-196
row	-197
▁20	-198
ong	-199
▁he	-200
od	-201
os	-202
▁ch	-203
▁inc	-204
▁or	-205
▁int	-206
▁their	-207
ear	-208
ans	-209
mer	-210
un	-211
▁imp	-212
▁1	-213
ome	-214
▁R	-215
▁US	-216
ib	-217
ich	-218
ther	-219
anc	-220
▁In	-221
ff	-222
▁world	-223
▁But	-224
▁countries	-225
▁un	-226
▁grow	-227
ak	-228
red	-229
▁res	-230
▁N	-231
ational	-232
ect	-233
el	-234
▁ad	-235
▁ag	-236
bal	-237
ance	-238
ary	-239
all	-240
▁ab	-241
gh	-242
ip	-243
▁would	-244
end	-245
▁this	-246
overn	-247
▁year	-248
▁than	-249
▁cont	-250
ight	-251
lobal	-252
▁which	-253
▁economic	-254
▁(	-255
ign	-256
pt	-257
able	-258
▁fin	-259
ard	-260
ates	-261
▁was	-262
cc	-263
ru	-264
▁can	-265
ations	-266
ric	-267
ark	-268
▁all	-269
▁comp	-270
▁polit	-271
rou	-272
out	-273
▁govern	-274
▁D	-275
▁O	-276
reat	-277
ous	-278
▁exp	-279
ud	-280
▁global	-281
ere	-282
▁rec	-283
du	-284
ress	-285
▁they	-286
▁polic	-287
ank	-288
▁growth	-289
▁whe	-290
ult	-291
lop	-292
ie	-293
▁Th	-294
velop	-295
▁part	-296
act	-297
ade	-298
▁man	-299
▁As	-300
▁government	-301
lic	-302
▁j	-303
for	-304
ide	-305
▁J	-306
▁H	-307
▁inv	-308
ike	-309
▁pl	-310
▁new	-311
ated	-312
▁Un	-313
og	-314
▁reg	-315
▁pe	-316
▁but	-317
one	-318
ence	-319
ven	-320
ree	-321
meric	-322
▁inter	-323
arket	-324
▁other	-325
ms	-326
ag	-327
ine	-328
▁bec	-329
age	-330
ile	-331
▁lead	-332
▁dis	-333
▁political	-334
▁K	-335
▁Americ	-336
▁L	-337
ren	-338
▁do	-339
ub	-340
▁dec	-341
▁over	-342
▁develop	-343
ep	-344
ian	-345
ern	-346
ime	-347
▁me	-348
ors	-349
▁been	-350
▁so	-351
ue	-352
▁out	-353
ris	-354
so	-355
ower	-356
▁European	-357
ll	-358
▁market	-359
ual	-360
▁dem	-361
ident	-362
▁comm	-363
▁one	-364
ens	-365
▁201	-366
▁EU	-367
reas	-368
▁need	-369
ities	-370
▁financ	-371
▁ind	-372
▁invest	-373
illion	-374
ition	-375
▁also	-376
ility	-377
▁cons	-378
▁should	-379
ction	-380
▁str	-381
▁ris	-382
▁per	-383
▁eff	-384
cy	-385
▁ma	-386
ack	-387
ese	-388
▁und	-389
ople	-390
are	-391
▁Ind	-392
▁economy	-393
ose	-394
00	-395
▁about	-396
ited	-397
▁policy	-398
▁only	-399
rit	-400
au	-401
ace	-402
▁19	-403
▁like	-404
our	-405
▁country	-406
ord	-407
▁most	-408
▁acc	-409
ange	-410
▁bet	-411
low	-412
▁cap	-413
▁years	-414
▁could	-415
ative	-416
pport	-417
ire	-418
▁financial	-419
▁people	-420
▁increas	-421
ber	-422
▁now	-423
▁cl	-424
▁under	-425
▁cur	-426
▁St	-427
ital	-428
av	-429
gy	-430
▁rel	-431
▁intern	-432
▁pre	-433
eral	-434
▁up	-435
▁long	-436
▁Af	-437
uch	-438
ew	-439
ublic	-440
fic	-441
▁must	-442
uss	-443
▁It	-444
▁sy	-445
ments	-446
▁Chinese	-447
form	-448
▁inf	-449
▁em	-450
ish	-451
▁go	-452
▁lar	-453
▁qu	-454
▁there	-455
int	-456
▁bank	-457
resident	-458
▁such	-459
ious	-460
old	-461
▁pr	-462
▁ro	-463
per	-464
▁no	-465
ail	-466
▁who	-467
▁soc	-468
we	-469
▁rem	-470
▁his	-471
ism	-472
stem	-473
▁even	-474
▁work	-475
▁international	-476
▁sp	-477
ach	-478
lect	-479
▁power	-480
pect	-481
ble	-482
▁leaders	-483
▁many	-484
ces	-485
▁co	-486
.”	-487
bt	-488
ause	-489
erest	-490
arly	-491
hip	-492
erv	-493
▁some	-494
▁ta	-495
ution	-496
und	-497
▁app	-498
▁produ	-499
▁system	-500
▁fir	-501
ount	-502
▁real	-503
rough	-504
very	-505
ame	-506
▁tw	-507
ough	-508
ang	-509
▁them	-510
amp	-511
▁ar	-512
▁fore	-513
▁United	-514
▁when	-515
▁200	-516
▁ra	-517
lud	-518
ating	-519
▁This	-520
ks	-521
▁were	-522
▁ass	-523
▁recent	-524
▁interest	-525
▁te	-526
▁if	-527
▁am	-528
man	-529
▁cris	-530
▁much	-531
own	-532
▁into	-533
▁And	-534
ov	-535
▁cent	-536
ization	-537
▁k	-538
ass	-539
▁trans	-540
▁rep	-541
▁import	-542
ons	-543
ific	-544
▁Russ	-545
▁mon	-546
▁act	-547
▁America	-548
uc	-549
ruct	-550
▁inst	-551
▁these	-552
▁ow	-553
ced	-554
olog	-555
▁us	-556
▁ter	-557
ory	-558
▁po	-559
get	-560
▁pos	-561
alth	-562
ond	-563
▁public	-564
cess	-565
hen	-566
ween	-567
ert	-568
▁may	-569
▁sc	-570
ral	-571
▁time	-572
ild	-573
iet	-574
▁att	-575
imate	-576
vent	-577
▁had	-578
▁high	-579
▁contin	-580
vers	-581
▁trade	-582
▁between	-583
ward	-584
▁just	-585
cur	-586
▁conf	-587
▁well	-588
▁support	-589
ful	-590
ject	-591
oth	-592
▁what	-593
hed	-594
▁ac	-595
▁crisis	-596
▁Tr	-597
its	-598
▁how	-599
▁any	-600
▁two	-601
min	-602
iss	-603
▁again	-604
ok	-605
opul	-606
uring	-607
▁while	-608
ives	-609
▁ref	-610
ics	-611
ient	-612
ural	-613
ration	-614
ible	-615
▁far	-616
ise	-617
▁because	-618
▁war	-619
iven	-620
▁$	-621
▁investment	-622
cial	-623
ob	-624
ues	-625
▁mem	-626
ists	-627
DP	-628
▁includ	-629
chn	-630
▁dif	-631
ove	-632
▁capital	-633
ince	-634
▁remain	-635
▁prov	-636
▁gen	-637
▁mod	-638
ump	-639
ite	-640
▁For	-641
apan	-642
rent	-643
▁ent	-644
▁popul	-645
▁development	-646
ability	-647
ry	-648
▁Y	-649
▁proble	-650
▁adv	-651
ize	-652
read	-653
▁Afric	-654
ied	-655
▁last	-656
vel	-657
▁pric	-658
▁debt	-659
▁foreign	-660
▁hel	-661
jor	-662
▁end	-663
ound	-664
▁add	-665
▁national	-666
▁fact	-667
▁euro	-668
urn	-669
▁Japan	-670
allen	-671
▁way	-672
eed	-673
lear	-674
round	-675
sel	-676
▁own	-677
▁def	-678
▁President	-679
orts	-680
oll	-681
ergy	-682
▁large	-683
▁right	-684
ef	-685
▁help	-686
▁prog	-687
▁first	-688
▁major	-689
▁democ	-690
▁Russia	-691
ase	-692
led	-693
▁des	-694
▁less	-695
▁GDP	-696
▁techn	-697
▁effect	-698
curity	-699
itt	-700
▁region	-701
▁dep	-702
ption	-703
gest	-704
▁billion	-705
atic	-706
ilit	-707
▁those	-708
ures	-709
▁great	-710
ging	-711
▁economies	-712
▁Se	-713
▁both	-714
▁our	-715
▁sign	-716
▁markets	-717
▁state	-718
▁change	-719
▁partic	-720
ind	-721
▁strate	-722
▁social	-723
ings	-724
,”	-725
▁sur	-726
▁Asia	-727
ential	-728
▁current	-729
▁conc	-730
oun	-731
▁est	-732
ice	-733
▁challen	-734
cal	-735
▁Brit	-736
▁requ	-737
aw	-738
utions	-739
▁through	-740
erman	-741
▁important	-742
▁af	-743
0%	-744
rib	-745
▁bo	-746
▁ob	-747
ict	-748
▁resp	-749
▁dom	-750
▁On	-751
outh	-752
ized	-753
▁ann	-754
▁ke	-755
▁hum	-756
▁energy	-757
omm	-758
▁infl	-759
eration	-760
eg	-761
▁off	-762
▁States	-763
▁Wh	-764
▁India	-765
▁sub	-766
aking	-767
▁after	-768
▁fut	-769
ty	-770
▁bu	-771
▁examp	-772
day	-773
▁against	-774
▁spe	-775
▁German	-776
▁policies	-777
▁emer	-778
ri	-779
▁Trump	-780
xt	-781
▁banks	-782
▁rate	-783
▁fund	-784
▁redu	-785
etary	-786
▁strong	-787
▁future	-788
▁appro	-789
ram	-790
▁where	-791
ally	-792
▁become	-793
fere	-794
iness	-795
▁technolog	-796
▁3	-797
▁ben	-798
ting	-799
ically	-800
▁example	-801
▁cost	-802
gan	-803
▁sim	-804
▁seem	-805
▁instit	-806
▁tax	-807
ices	-808
▁make	-809
▁demand	-810
ract	-811
▁prom	-812
▁rest	-813
▁good	-814
▁kn	-815
loy	-816
▁aut	-817
ood	-818
▁Ch	-819
▁every	-820
▁health	-821
les	-822
▁If	-823
▁Bank	-824
▁main	-825
▁today	-826
▁American	-827
),	-828
▁West	-829
▁Is	-830
▁rates	-831
rast	-832
ared	-833
king	-834
ision	-835
▁emp	-836
▁ext	-837
als	-838
▁More	-839
▁since	-840
usiness	-841
▁result	-842
▁val	-843
ron	-844
▁consum	-845
▁sa	-846
▁sol	-847
▁iss	-848
ready	-849
ense	-850
term	-851
ually	-852
▁commun	-853
▁governments	-854
▁op	-855
ased	-856
der	-857
▁lo	-858
▁increasing	-859
▁Union	-860
▁milit	-861
▁human	-862
iew	-863
ather	-864
zone	-865
).	-866
▁same	-867
iron	-868
▁cor	-869
▁V	-870
other	-871
▁serv	-872
stain	-873
▁security	-874
▁million	-875
▁pur	-876
▁prot	-877
▁indust	-878
▁Africa	-879
▁still	-880
iscal	-881
▁sustain	-882
ater	-883
▁equ	-884
ss	-885
▁back	-886
▁climate	-887
▁including	-888
▁already	-889
▁offic	-890
ning	-891
ft	-892
▁South	-893
▁level	-894
▁business	-895
ays	-896
▁product	-897
▁agree	-898
▁compet	-899
▁compan	-900
▁too	-901
▁toward	-902
▁does	-903
rency	-904
▁sect	-905
▁set	-906
ians	-907
▁Wor	-908
▁Int	-909
ath	-910
▁env	-911
▁impro	-912
ges	-913
ving	-914
▁ret	-915
mental	-916
▁min	-917
▁risk	-918
air	-919
ran	-920
ending	-921
▁benef	-922
ructure	-923
▁see	-924
▁decl	-925
bers	-926
▁tra	-927
▁ser	-928
abl	-929
▁cre	-930
▁fiscal	-931
ants	-932
ieve	-933
▁states	-934
▁That	-935
▁military	-936
▁East	-937
pl	-938
tern	-939
▁use	-940
▁particul	-941
ably	-942
▁sm	-943
abor	-944
▁Indeed	-945
▁es	-946
land	-947
▁call	-948
ved	-949
ivers	-950
▁point	-951
▁neg	-952
▁fail	-953
▁environ	-954
▁low	-955
▁cred	-956
▁const	-957
▁differe	-958
▁br	-959
▁eurozone	-960
ccess	-961
▁order	-962
fore	-963
less	-964
▁threat	-965
▁leg	-966
▁Comm	-967
▁role	-968
▁disc	-969
▁elect	-970
▁cour	-971
ily	-972
▁bel	-973
▁ins	-974
ality	-975
hing	-976
▁central	-977
road	-978
▁ed	-979
▁priv	-980
▁regul	-981
▁relations	-982
▁el	-983
estic	-984
▁likely	-985
ex	-986
ged	-987
ider	-988
▁stand	-989
▁World	-990
ouse	-991
▁monetary	-992
▁5	-993
ior	-994
▁clo	-995
▁expect	-996
inc	-997
ined	-998
▁Kore	-999
▁De	-1000
▁made	-1001
▁fac	-1002
▁vot	-1003
▁ens	-1004
▁next	-1005
ross	-1006
▁Germany	-1007
imes	-1008
here	-1009
▁take	-1010
▁prices	-1011
not	-1012
cond	-1013
▁hig	-1014
▁success	-1015
racy	-1016
ivity	-1017
▁account	-1018
▁domestic	-1019
▁developing	-1020
ister	-1021
ades	-1022
▁At	-1023
▁around	-1024
lement	-1025
▁quest	-1026
ger	-1027
▁med	-1028
▁down	-1029
▁hist	-1030
idd	-1031
▁supp	-1032
▁being	-1033
ute	-1034
resent	-1035
▁pros	-1036
▁without	-1037
▁might	-1038
ury	-1039
hold	-1040
pportun	-1041
▁To	-1042
▁aff	-1043
▁three	-1044
ier	-1045
▁view	-1046
ell	-1047
ten	-1048
ertain	-1049
▁reas	-1050
ency	-1051
ratic	-1052
ollow	-1053
▁4	-1054
self	-1055
▁creat	-1056
▁Intern	-1057
ocus	-1058
▁better	-1059
ON	-1060
ience	-1061
▁dire	-1062
▁opportun	-1063
▁president	-1064
▁inn	-1065
▁open	-1066
ck	-1067
▁ide	-1068
▁problem	-1069
▁job	-1070
oss	-1071
▁We	-1072
ered	-1073
▁pers	-1074
▁poss	-1075
▁play	-1076
hor	-1077
ued	-1078
▁educ	-1079
▁another	-1080
▁among	-1081
▁press	-1082
0,	-1083
▁Fr	-1084
arch	-1085
▁integ	-1086
▁increase	-1087
▁past	-1088
uel	-1089
▁199	-1090
ts	-1091
iving	-1092
▁societ	-1093
▁emerging	-1094
ever	-1095
▁focus	-1096
▁short	-1097
▁members	-1098
▁companies	-1099
▁know	-1100
▁official	-1101
▁trad	-1102
pecial	-1103
▁contro	-1104
ness	-1105
ines	-1106
change	-1107
▁Moreover	-1108
cies	-1109
▁did	-1110
▁needs	-1111
▁start	-1112
▁With	-1113
▁approach	-1114
▁rev	-1115
▁signific	-1116
rem	-1117
▁establ	-1118
▁imm	-1119
▁pot	-1120
cept	-1121
▁institutions	-1122
most	-1123
▁strateg	-1124
ars	-1125
▁ach	-1126
▁put	-1127
▁move	-1128
▁law	-1129
▁rul	-1130
ink	-1131
▁prop	-1132
▁innov	-1133
ources	-1134
reng	-1135
▁currency	-1136
▁rise	-1137
▁build	-1138
▁cannot	-1139
▁protect	-1140
itions	-1141
iddle	-1142
stand	-1143
▁coop	-1144
▁plan	-1145
▁follow	-1146
▁ant	-1147
▁then	-1148
ording	-1149
istan	-1150
forms	-1151
▁dist	-1152
▁loc	-1153
▁ren	-1154
rastructure	-1155
▁hard	-1156
▁process	-1157
▁ap	-1158
cing	-1159
▁very	-1160
uclear	-1161
▁peace	-1162
aly	-1163
ead	-1164
▁arg	-1165
▁income	-1166
▁streng	-1167
▁lif	-1168
▁effective	-1169
ners	-1170
ork	-1171
▁gr	-1172
▁address	-1173
▁significant	-1174
anced	-1175
▁6	-1176
itiz	-1177
▁turn	-1178
pid	-1179
▁share	-1180
▁project	-1181
ama	-1182
ivid	-1183
▁av	-1184
▁ev	-1185
▁potential	-1186
io	-1187
▁model	-1188
▁Iran	-1189
osed	-1190
▁meas	-1191
▁allow	-1192
▁exper	-1193
▁month	-1194
loyment	-1195
pecially	-1196
▁progress	-1197
▁Al	-1198
▁key	-1199
▁course	-1200
ying	-1201
▁tar	-1202
▁meet	-1203
ateral	-1204
▁private	-1205
arl	-1206
ner	-1207
▁ful	-1208
▁Part	-1209
▁author	-1210
▁concern	-1211
gin	-1212
▁Nor	-1213
▁wit	-1214
urther	-1215
5%	-1216
▁pay	-1217
ission	-1218
ix	-1219
▁eng	-1220
▁weak	-1221
por	-1222
▁UK	-1223
roup	-1224
▁higher	-1225
▁few	-1226
▁crit	-1227
▁citiz	-1228
▁growing	-1229
uge	-1230
▁labor	-1231
▁slow	-1232
▁problems	-1233
lection	-1234
▁form	-1235
▁defic	-1236
▁services	-1237
▁decades	-1238
up	-1239
000	-1240
▁Ob	-1241
▁num	-1242
▁free	-1243
▁infrastructure	-1244
ets	-1245
▁before	-1246
▁ago	-1247
▁They	-1248
▁Korea	-1249
vere	-1250
▁least	-1251
▁especially	-1252
▁increasingly	-1253
▁chang	-1254
▁population	-1255
▁An	-1256
ilateral	-1257
▁inflation	-1258
ush	-1259
ances	-1260
itive	-1261
▁remains	-1262
▁gu	-1263
ately	-1264
▁needed	-1265
▁industr	-1266
▁bal	-1267
verage	-1268
20	-1269
ird	-1270
▁efforts	-1271
formation	-1272
ages	-1273
ering	-1274
▁clear	-1275
▁sector	-1276
▁eas	-1277
▁ine	-1278
▁interests	-1279
aim	-1280
ogn	-1281
▁opp	-1282
ibility	-1283
▁often	-1284
▁reform	-1285
ret	-1286
▁member	-1287
▁nuclear	-1288
▁mat	-1289
ished	-1290
oti	-1291
▁Re	-1292
▁lim	-1293
▁car	-1294
izing	-1295
▁init	-1296
▁greater	-1297
▁continue	-1298
olution	-1299
▁democracy	-1300
▁X	-1301
▁deep	-1302
com	-1303
▁challenges	-1304
▁during	-1305
▁recently	-1306
▁doll	-1307
▁access	-1308
▁big	-1309
▁rapid	-1310
▁run	-1311
▁serious	-1312
▁common	-1313
ents	-1314
▁though	-1315
▁citizens	-1316
wh	-1317
ides	-1318
▁nor	-1319
ves	-1320
▁So	-1321
▁dr	-1322
▁shif	-1323
▁Obama	-1324
▁non	-1325
▁British	-1326
▁cult	-1327
▁within	-1328
ai	-1329
acy	-1330
ake	-1331
▁show	-1332
aps	-1333
ted	-1334
▁ur	-1335
▁hal	-1336
▁itself	-1337
▁reason	-1338
▁conflic	-1339
ick	-1340
ock	-1341
▁By	-1342
▁child	-1343
▁Britain	-1344
▁Cent	-1345
▁There	-1346
reed	-1347
▁almost	-1348
▁prof	-1349
▁rather	-1350
▁reforms	-1351
▁Fed	-1352
▁Min	-1353
▁Rep	-1354
▁small	-1355
▁different	-1356
ening	-1357
▁means	-1358
▁annual	-1359
▁credit	-1360
rug	-1361
ittle	-1362
itional	-1363
▁negoti	-1364
▁further	-1365
rime	-1366
gether	-1367
▁together	-1368
▁vi	-1369
▁treat	-1370
rate	-1371
▁broad	-1372
▁local	-1373
▁whether	-1374
▁question	-1375
▁ph	-1376
▁lib	-1377
oney	-1378
▁rights	-1379
omen	-1380
then	-1381
▁particularly	-1382
▁mult	-1383
▁While	-1384
▁recogn	-1385
▁control	-1386
onal	-1387
▁consider	-1388
▁little	-1389
▁education	-1390
▁contrib	-1391
kra	-1392
ivil	-1393
▁mass	-1394
▁ensure	-1395
▁regional	-1396
▁stability	-1397
nce	-1398
▁given	-1399
▁requi	-1400
▁say	-1401
▁create	-1402
epend	-1403
▁gain	-1404
▁cooperation	-1405
yn	-1406
cent	-1407
pite	-1408
▁col	-1409
ators	-1410
▁appe	-1411
▁direct	-1412
akes	-1413
the	-1414
▁War	-1415
vious	-1416
▁group	-1417
▁agreement	-1418
▁Ukra	-1419
▁find	-1420
ipl	-1421
ave	-1422
be	-1423
tain	-1424
▁fall	-1425
▁respons	-1426
▁fe	-1427
▁come	-1428
▁costs	-1429
▁found	-1430
▁7	-1431
▁bas	-1432
▁want	-1433
▁strengthen	-1434
aus	-1435
▁second	-1436
▁require	-1437
ash	-1438
ata	-1439
akers	-1440
▁post	-1441
▁report	-1442
▁Western	-1443
imin	-1444
▁When	-1445
▁terms	-1446
▁strategy	-1447
▁cond	-1448
▁case	-1449
rop	-1450
ling	-1451
▁hold	-1452
▁stud	-1453
▁improve	-1454
▁exchange	-1455
▁leadership	-1456
▁2008	-1457
▁pres	-1458
atives	-1459
▁money	-1460
▁former	-1461
▁politics	-1462
sequ	-1463
▁largest	-1464
lus	-1465
▁Be	-1466
▁New	-1467
▁oil	-1468
▁claim	-1469
conomic	-1470
▁nat	-1471
▁understand	-1472
▁rese	-1473
▁gener	-1474
▁France	-1475
way	-1476
icient	-1477
▁purs	-1478
▁target	-1479
ficult	-1480
▁difficult	-1481
ened	-1482
▁benefits	-1483
▁resources	-1484
pris	-1485
▁Asian	-1486
▁boost	-1487
▁price	-1488
lam	-1489
ention	-1490
RI	-1491
▁Tur	-1492
▁lower	-1493
▁longer	-1494
▁$1	-1495
▁comple	-1496
ply	-1497
▁rising	-1498
te	-1499
ining	-1500
hes	-1501
▁sug	-1502
▁After	-1503
▁society	-1504
▁yet	-1505
▁best	-1506
▁influ	-1507
ope	-1508
makers	-1509
▁finance	-1510
▁election	-1511
olit	-1512
▁civil	-1513
▁promot	-1514
▁why	-1515
where	-1516
raz	-1517
▁He	-1518
oura	-1519
▁fam	-1520
▁coll	-1521
▁happ	-1522
▁North	-1523
▁impact	-1524
▁relative	-1525
acc	-1526
ale	-1527
ned	-1528
▁half	-1529
▁Minister	-1530
ming	-1531
▁implement	-1532
0.	-1533
▁commit	-1534
▁prevent	-1535
▁initi	-1536
▁depend	-1537
ression	-1538
iod	-1539
▁enc	-1540
▁tot	-1541
▁suff	-1542
oid	-1543
aged	-1544
ront	-1545
▁One	-1546
▁struct	-1547
rael	-1548
▁cho	-1549
▁sav	-1550
▁force	-1551
▁value	-1552
▁pred	-1553
▁reduce	-1554
▁suggest	-1555
ror	-1556
▁Yet	-1557
▁home	-1558
minist	-1559
rab	-1560
▁cut	-1561
▁del	-1562
▁investors	-1563
iqu	-1564
▁export	-1565
▁number	-1566
▁average	-1567
▁net	-1568
razil	-1569
▁seems	-1570
▁challenge	-1571
▁er	-1572
▁tal	-1573
like	-1574
omet	-1575
▁organ	-1576
▁across	-1577
▁modern	-1578
▁Central	-1579
put	-1580
abil	-1581
empt	-1582
ences	-1583
udget	-1584
▁technology	-1585
▁Party	-1586
▁risks	-1587
▁rules	-1588
▁provide	-1589
▁emb	-1590
▁her	-1591
idence	-1592
▁Ar	-1593
▁care	-1594
▁begin	-1595
▁certain	-1596
▁however	-1597
dom	-1598
▁jo	-1599
▁camp	-1600
▁hand	-1601
▁event	-1602
▁house	-1603
▁systems	-1604
ug	-1605
ban	-1606
emoc	-1607
iver	-1608
side	-1609
▁place	-1610
▁reflect	-1611
▁community	-1612
▁strategic	-1613
▁sustainable	-1614
ards	-1615
▁2015	-1616
▁data	-1617
▁land	-1618
▁used	-1619
▁viol	-1620
▁exports	-1621
▁trillion	-1622
▁deal	-1623
▁Ukraine	-1624
▁consumption	-1625
▁productivity	-1626
▁get	-1627
▁life	-1628
▁issues	-1629
lf	-1630
▁cle	-1631
▁poor	-1632
▁establish	-1633
▁each	-1634
▁Israel	-1635
▁return	-1636
▁spending	-1637
▁International	-1638
ases	-1639
acity	-1640
▁step	-1641
▁funda	-1642
bon	-1643
▁En	-1644
irst	-1645
ither	-1646
▁jobs	-1647
▁mean	-1648
▁others	-1649
fact	-1650
yond	-1651
▁four	-1652
overty	-1653
igration	-1654
▁prosper	-1655
cul	-1656
,000	-1657
▁comb	-1658
▁enough	-1659
▁advanced	-1660
▁my	-1661
▁face	-1662
▁administ	-1663
▁maintain	-1664
gent	-1665
▁total	-1666
▁partners	-1667
cil	-1668
▁Xi	-1669
▁head	-1670
▁simil	-1671
▁dollar	-1672
▁thus	-1673
▁Brazil	-1674
▁achieve	-1675
▁Republic	-1676
▁represent	-1677
▁ru	-1678
▁oper	-1679
▁never	-1680
▁budget	-1681
▁individ	-1682
▁dev	-1683
▁anti	-1684
▁history	-1685
▁decade	-1686
▁democratic	-1687
▁dou	-1688
▁occ	-1689
▁balance	-1690
▁measures	-1691
▁bring	-1692
▁period	-1693
key	-1694
▁bor	-1695
▁pat	-1696
▁bond	-1697
▁women	-1698
▁sl	-1699
ession	-1700
wide	-1701
▁top	-1702
ighb	-1703
▁Con	-1704
▁These	-1705
▁close	-1706
▁developed	-1707
▁individual	-1708
▁youn	-1709
▁union	-1710
▁increased	-1711
▁integration	-1712
ceed	-1713
erve	-1714
▁gre	-1715
▁Arab	-1716
▁stat	-1717
▁century	-1718
arm	-1719
ats	-1720
▁Sy	-1721
ided	-1722
▁firms	-1723
▁poverty	-1724
raw	-1725
come	-1726
▁Man	-1727
selves	-1728
▁believe	-1729
▁workers	-1730
▁vis	-1731
iplom	-1732
ee	-1733
▁8	-1734
ised	-1735
▁caus	-1736
▁based	-1737
▁Sp	-1738
▁deb	-1739
▁Gree	-1740
▁five	-1741
▁avoid	-1742
▁action	-1743
▁levels	-1744
▁politic	-1745
▁possible	-1746
ufact	-1747
▁bord	-1748
issions	-1749
▁environmental	-1750
ived	-1751
▁sum	-1752
▁fuel	-1753
rex	-1754
ified	-1755
▁look	-1756
▁sing	-1757
▁becom	-1758
mit	-1759
aken	-1760
▁Acc	-1761
istic	-1762
▁Turkey	-1763
▁expand	-1764
▁encoura	-1765
▁pressure	-1766
utin	-1767
▁198	-1768
▁aim	-1769
▁she	-1770
▁liberal	-1771
▁environment	-1772
▁Fin	-1773
▁him	-1774
ively	-1775
▁ever	-1776
ph	-1777
▁sk	-1778
▁left	-1779
▁policymakers	-1780
▁la	-1781
▁blo	-1782
▁Inst	-1783
▁times	-1784
vention	-1785
▁Develop	-1786
▁consequ	-1787
▁innovation	-1788
cho	-1789
▁fear	-1790
▁diplom	-1791
▁neighb	-1792
▁King	-1793
▁manufact	-1794
▁relationship	-1795
▁fl	-1796
haps	-1797
ival	-1798
▁early	-1799
▁Middle	-1800
though	-1801
▁position	-1802
lows	-1803
▁rule	-1804
ield	-1805
▁lack	-1806
▁children	-1807
igr	-1808
▁saf	-1809
ler	-1810
▁independ	-1811
olic	-1812
uing	-1813
▁Even	-1814
▁fast	-1815
▁Prime	-1816
▁terror	-1817
▁working	-1818
CB	-1819
▁met	-1820
iation	-1821
akistan	-1822
▁Cl	-1823
aign	-1824
based	-1825
uation	-1826
AN	-1827
to	-1828
rodu	-1829
agement	-1830
▁making	-1831
▁capacity	-1832
▁deter	-1833
▁exist	-1834
▁amount	-1835
▁conflict	-1836
▁Commission	-1837
▁industrial	-1838
az	-1839
▁unt	-1840
▁similar	-1841
▁campaign	-1842
▁research	-1843
▁household	-1844
▁opportunity	-1845
just	-1846
lation	-1847
ination	-1848
▁accept	-1849
▁respect	-1850
▁true	-1851
▁reach	-1852
quality	-1853
▁According	-1854
omp	-1855
▁Of	-1856
▁you	-1857
▁nearly	-1858
▁information	-1859
▁sense	-1860
utional	-1861
▁Russian	-1862
▁bre	-1863
▁char	-1864
▁dest	-1865
▁adop	-1866
▁areas	-1867
▁wealth	-1868
▁coal	-1869
▁keep	-1870
▁parties	-1871
ean	-1872
▁bl	-1873
▁African	-1874
▁officials	-1875
down	-1876
aring	-1877
▁shift	-1878
▁water	-1879
▁single	-1880
▁Or	-1881
arlia	-1882
rexit	-1883
▁Islam	-1884
mber	-1885
▁Cong	-1886
▁deficit	-1887
▁program	-1888
▁decision	-1889
▁UN	-1890
▁Democ	-1891
▁Putin	-1892
▁somet	-1893
▁cities	-1894
▁values	-1895
▁structural	-1896
cl	-1897
nect	-1898
arian	-1899
▁food	-1900
▁hope	-1901
▁pract	-1902
▁banking	-1903
▁Res	-1904
▁ess	-1905
▁dang	-1906
▁despite	-1907
▁Americans	-1908
▁able	-1909
▁once	-1910
▁young	-1911
▁Pakistan	-1912
▁particip	-1913
ria	-1914
▁ge	-1915
▁led	-1916
aging	-1917
▁2014	-1918
▁goods	-1919
▁dig	-1920
ource	-1921
▁necess	-1922
▁regard	-1923
▁transp	-1924
▁old	-1925
veral	-1926
▁said	-1927
▁issue	-1928
illions	-1929
▁corpor	-1930
▁administration	-1931
ising	-1932
▁subst	-1933
▁entire	-1934
▁requires	-1935
▁conditions	-1936
0’	-1937
ways	-1938
▁ECB	-1939
▁effort	-1940
▁extrem	-1941
▁sovere	-1942
▁Kingdom	-1943
▁general	-1944
▁leading	-1945
▁recover	-1946
▁emissions	-1947
by	-1948
▁clos	-1949
▁expl	-1950
▁influence	-1951
ief	-1952
rend	-1953
▁What	-1954
▁themselves	-1955
den	-1956
rag	-1957
rated	-1958
rench	-1959
iveness	-1960
▁massive	-1961
▁else	-1962
▁expected	-1963
▁governance	-1964
▁production	-1965
ins	-1966
ium	-1967
▁opportunities	-1968
ien	-1969
enda	-1970
▁che	-1971
chool	-1972
▁2013	-1973
ternal	-1974
▁attack	-1975
ys	-1976
imul	-1977
▁regime	-1978
▁supply	-1979
▁dam	-1980
▁Fund	-1981
▁fram	-1982
▁Nations	-1983
▁sec	-1984
▁media	-1985
▁decline	-1986
▁Development	-1987
wise	-1988
▁mar	-1989
▁news	-1990
▁object	-1991
▁created	-1992
bi	-1993
▁Sh	-1994
▁ident	-1995
iversity	-1996
▁sit	-1997
▁full	-1998
▁estim	-1999
arliament	-2000
▁politicians	-2001
▁technologies	-2002
ik	-2003
lim	-2004
▁forces	-2005
▁histor	-2006
▁stimul	-2007
▁largely	-2008
rec	-2009
▁197	-2010
itted	-2011
▁term	-2012
ruption	-2013
▁called	-2014
▁effects	-2015
▁ty	-2016
ah	-2017
▁Z	-2018
▁par	-2019
ricult	-2020
ruction	-2021
line	-2022
▁Italy	-2023
▁think	-2024
▁excess	-2025
▁employment	-2026
ched	-2027
▁Bar	-2028
iting	-2029
▁Coun	-2030
market	-2031
▁oppos	-2032
▁Council	-2033
▁natural	-2034
de	-2035
oral	-2036
▁All	-2037
▁refuge	-2038
▁unlike	-2039
▁changes	-2040
▁Mon	-2041
ctions	-2042
▁May	-2043
▁ten	-2044
▁2016	-2045
▁lear	-2046
▁invol	-2047
▁1.	-2048
▁path	-2049
▁poll	-2050
▁Global	-2051
▁several	-2052
▁9	-2053
onse	-2054
▁agg	-2055
▁sure	-2056
▁industry	-2057
▁unc	-2058
alled	-2059
arent	-2060
incip	-2061
emp	-2062
▁day	-2063
▁fight	-2064
▁beyond	-2065
▁borrow	-2066
▁National	-2067
▁external	-2068
▁essential	-2069
1,	-2070
▁fav	-2071
▁territ	-2072
▁Congress	-2073
▁Ag	-2074
▁cr	-2075
▁cy	-2076
▁kind	-2077
▁skill	-2078
▁leader	-2079
▁simply	-2080
ends	-2081
rupt	-2082
onald	-2083
reedom	-2084
▁stock	-2085
▁danger	-2086
med	-2087
pped	-2088
minbi	-2089
▁alone	-2090
▁along	-2091
▁agenda	-2092
▁framew	-2093
▁response	-2094
▁authorities	-2095
▁fundamental	-2096
ne	-2097
ring	-2098
▁trend	-2099
▁French	-2100
▁economists	-2101
hind	-2102
▁taken	-2103
atory	-2104
▁Afgh	-2105
▁began	-2106
▁Brexit	-2107
▁advant	-2108
▁voters	-2109
▁discuss	-2110
▁popular	-2111
▁princip	-2112
▁projects	-2113
▁renminbi	-2114
IN	-2115
▁air	-2116
▁Given	-2117
▁announ	-2118
▁powerful	-2119
▁prosperity	-2120
lt	-2121
ify	-2122
olicy	-2123
▁goal	-2124
▁assets	-2125
▁proper	-2126
▁meeting	-2127
▁commitment	-2128
▁competition	-2129
▁mom	-2130
▁mov	-2131
▁done	-2132
▁rece	-2133
▁assum	-2134
▁enter	-2135
▁owing	-2136
▁ability	-2137
▁predict	-2138
▁successful	-2139
cut	-2140
lev	-2141
▁Pro	-2142
▁ways	-2143
▁party	-2144
▁urban	-2145
▁whose	-2146
▁digital	-2147
▁Pe	-2148
ured	-2149
▁Afghan	-2150
▁respond	-2151
raq	-2152
▁amb	-2153
▁beh	-2154
▁Bush	-2155
▁vict	-2156
▁First	-2157
▁having	-2158
▁perform	-2159
▁prospect	-2160
ently	-2161
▁Iraq	-2162
▁scient	-2163
oh	-2164
ises	-2165
▁gas	-2166
▁loss	-2167
isions	-2168
▁months	-2169
▁substant	-2170
▁consequences	-2171
7,	-2172
oday	-2173
iance	-2174
▁self	-2175
▁domin	-2176
gypt	-2177
▁abs	-2178
▁bar	-2179
▁mob	-2180
▁counter	-2181
▁agricult	-2182
▁Europeans	-2183
▁18	-2184
▁NE	-2185
vest	-2186
▁activ	-2187
▁status	-2188
▁vision	-2189
fer	-2190
plus	-2191
ream	-2192
▁Lat	-2193
▁dyn	-2194
iding	-2195
▁attempt	-2196
▁worldwide	-2197
▁inequality	-2198
▁Ro	-2199
▁prob	-2200
▁Egypt	-2201
▁until	-2202
▁particular	-2203
▁manufacturing	-2204
SE	-2205
ember	-2206
erves	-2207
ously	-2208
▁rein	-2209
▁Today	-2210
▁prior	-2211
▁larger	-2212
▁Some	-2213
ensive	-2214
▁constit	-2215
OR	-2216
▁NEW	-2217
while	-2218
▁behind	-2219
▁investments	-2220
mb	-2221
lies	-2222
▁indic	-2223
▁always	-2224
▁moment	-2225
olitical	-2226
▁Internet	-2227
▁obs	-2228
inking	-2229
▁Greece	-2230
▁living	-2231
-1	-2232
head	-2233
▁Cons	-2234
▁prim	-2235
ancing	-2236
▁break	-2237
▁coming	-2238
▁majority	-2239
▁financing	-2240
ended	-2241
uslim	-2242
▁class	-2243
▁third	-2244
▁contrast	-2245
▁don	-2246
▁Many	-2247
▁according	-2248
▁continent	-2249
▁experience	-2250
mp	-2251
ton	-2252
oint	-2253
▁idea	-2254
▁opt	-2255
force	-2256
▁2012	-2257
▁lives	-2258
▁makes	-2259
▁unemp	-2260
▁altern	-2261
▁perhaps	-2262
▁surplus	-2263
▁Economic	-2264
ina	-2265
reg	-2266
rams	-2267
▁rat	-2268
▁Donald	-2269
ds	-2270
▁15	-2271
▁substantial	-2272
ple	-2273
▁wee	-2274
ights	-2275
▁shar	-2276
▁Latin	-2277
▁incent	-2278
▁record	-2279
▁school	-2280
▁standards	-2281
▁aid	-2282
▁defense	-2283
▁include	-2284
▁elections	-2285
▁Ge	-2286
▁cru	-2287
▁debate	-2288
▁design	-2289
▁previous	-2290
▁globalization	-2291
year	-2292
▁vol	-2293
thing	-2294
ulner	-2295
▁huge	-2296
▁renew	-2297
▁Commun	-2298
▁expans	-2299
ensus	-2300
oring	-2301
▁dynam	-2302
▁benefit	-2303
▁freedom	-2304
▁presidential	-2305
rad	-2306
▁Le	-2307
▁bad	-2308
▁pow	-2309
oviet	-2310
istance	-2311
TO	-2312
ape	-2313
▁AI	-2314
iate	-2315
▁lat	-2316
arily	-2317
▁rich	-2318
▁test	-2319
▁attract	-2320
ieved	-2321
▁Muslim	-2322
▁failed	-2323
go	-2324
-20	-2325
ech	-2326
has	-2327
▁Now	-2328
▁san	-2329
▁doing	-2330
itarian	-2331
▁affect	-2332
▁framework	-2333
▁relatively	-2334
sh	-2335
mal	-2336
▁win	-2337
ledge	-2338
▁prec	-2339
▁quick	-2340
▁really	-2341
▁Japanese	-2342
▁concerns	-2343
▁programs	-2344
▁recovery	-2345
▁solutions	-2346
pr	-2347
▁away	-2348
▁middle	-2349
▁vulner	-2350
hood	-2351
arter	-2352
▁bonds	-2353
▁highly	-2354
▁powers	-2355
▁propos	-2356
▁sectors	-2357
MF	-2358
▁soon	-2359
▁weap	-2360
▁cause	-2361
▁funds	-2362
▁using	-2363
igrants	-2364
▁creating	-2365
▁sw	-2366
rict	-2367
▁var	-2368
arant	-2369
▁dise	-2370
▁subs	-2371
▁demon	-2372
▁legit	-2373
▁taking	-2374
▁reserves	-2375
▁expansion	-2376
urs	-2377
▁disp	-2378
▁late	-2379
▁adjust	-2380
▁collect	-2381
▁stronger	-2382
▁attention	-2383
▁following	-2384
▁traditional	-2385
sw	-2386
▁lost	-2387
▁green	-2388
▁rough	-2389
▁shared	-2390
izations	-2391
▁willing	-2392
▁Monetary	-2393
▁critical	-2394
▁cultural	-2395
%,	-2396
aced	-2397
▁ult	-2398
▁unp	-2399
▁later	-2400
▁probably	-2401
▁necessary	-2402
▁IMF	-2403
▁eth	-2404
▁Like	-2405
▁give	-2406
▁held	-2407
▁Since	-2408
▁emphas	-2409
▁complex	-2410
ored	-2411
aving	-2412
rel	-2413
▁ear	-2414
▁Such	-2415
▁death	-2416
▁refere	-2417
▁revolution	-2418
▁Afghanistan	-2419
▁negotiations	-2420
ator	-2421
▁vir	-2422
▁wide	-2423
called	-2424
▁Syria	-2425
▁reven	-2426
▁uncertain	-2427
alest	-2428
ortun	-2429
▁above	-2430
imately	-2431
▁guarant	-2432
▁unemployment	-2433
▁technological	-2434
uly	-2435
▁bur	-2436
▁tem	-2437
ordin	-2438
▁laun	-2439
▁seen	-2440
▁vote	-2441
▁asset	-2442
▁flows	-2443
▁super	-2444
▁indeed	-2445
▁bilateral	-2446
att	-2447
▁rob	-2448
▁favor	-2449
▁demonst	-2450
ification	-2451
▁consumer	-2452
aris	-2453
▁10%	-2454
▁vital	-2455
account	-2456
▁introdu	-2457
▁farm	-2458
▁prep	-2459
▁State	-2460
▁ground	-2461
▁Instead	-2462
▁actually	-2463
▁Q	-2464
ici	-2465
ung	-2466
▁six	-2467
▁drug	-2468
income	-2469
▁comes	-2470
▁relig	-2471
▁reality	-2472
ij	-2473
▁Jun	-2474
▁exc	-2475
▁groups	-2476
▁businesses	-2477
▁institutional	-2478
ached	-2479
▁below	-2480
ological	-2481
▁creation	-2482
▁protection	-2483
▁transition	-2484
ING	-2485
▁cat	-2486
▁heav	-2487
▁resol	-2488
▁Argent	-2489
▁Soviet	-2490
▁building	-2491
▁established	-2492
leg	-2493
▁Ex	-2494
rats	-2495
▁nar	-2496
▁univers	-2497
▁violence	-2498
▁neighbors	-2499
%.	-2500
..	-2501
rep	-2502
hest	-2503
ones	-2504
▁mis	-2505
▁immed	-2506
▁taxes	-2507
▁roughly	-2508
▁becoming	-2509
▁minister	-2510
bo	-2511
orm	-2512
zer	-2513
▁live	-2514
▁Barack	-2515
▁connect	-2516
▁continued	-2517
lin	-2518
retary	-2519
▁products	-2520
▁certainly	-2521
▁corporate	-2522
▁currently	-2523
▁situation	-2524
DG	-2525
het	-2526
▁Sc	-2527
▁ve	-2528
chan	-2529
ctor	-2530
exic	-2531
raph	-2532
▁Mean	-2533
▁read	-2534
▁legal	-2535
▁purch	-2536
ressive	-2537
▁commod	-2538
▁present	-2539
▁competit	-2540
▁positive	-2541
▁continues	-2542
9,	-2543
ma	-2544
part	-2545
lying	-2546
▁feel	-2547
ception	-2548
▁extreme	-2549
▁failure	-2550
▁unlikely	-2551
ortunately	-2552
▁recession	-2553
▁something	-2554
50	-2555
uted	-2556
▁carbon	-2557
▁Meanwhile	-2558
ters	-2559
iated	-2560
▁Aust	-2561
▁near	-2562
▁tens	-2563
▁Mexic	-2564
▁behav	-2565
▁expert	-2566
▁nothing	-2567
▁elsewhere	-2568
orn	-2569
rong	-2570
celer	-2571
▁inclus	-2572
▁mechan	-2573
▁thereby	-2574
▁industries	-2575
ired	-2576
▁line	-2577
itable	-2578
▁employ	-2579
▁Security	-2580
rugg	-2581
▁cir	-2582
ingly	-2583
▁Geor	-2584
▁conv	-2585
▁road	-2586
▁commer	-2587
▁either	-2588
▁forward	-2589
▁science	-2590
▁deficits	-2591
▁millions	-2592
▁enterpris	-2593
▁communities	-2594
sp	-2595
▁link	-2596
making	-2597
▁Spain	-2598
▁center	-2599
▁summit	-2600
▁advantage	-2601
erb	-2602
▁art	-2603
▁rad	-2604
▁geop	-2605
ograph	-2606
▁points	-2607
▁strugg	-2608
▁things	-2609
▁recognize	-2610
▁multilateral	-2611
iff	-2612
▁div	-2613
▁fle	-2614
▁mind	-2615
▁worse	-2616
▁crucial	-2617
▁factors	-2618
▁obvious	-2619
▁reducing	-2620
cle	-2621
crib	-2622
▁den	-2623
▁fed	-2624
▁Great	-2625
▁ahead	-2626
▁People	-2627
▁crises	-2628
▁severe	-2629
▁surpris	-2630
▁evidence	-2631
▁additional	-2632
ya	-2633
loc	-2634
use	-2635
acro	-2636
▁Mar	-2637
▁ill	-2638
▁pass	-2639
rencies	-2640
▁skills	-2641
▁stable	-2642
▁promote	-2643
▁compared	-2644
▁existing	-2645
▁beginning	-2646
▁performance	-2647
▁responsibility	-2648
agn	-2649
ene	-2650
▁Ad	-2651
▁Go	-2652
airs	-2653
uster	-2654
▁miss	-2655
economic	-2656
▁everyone	-2657
▁transform	-2658
omb	-2659
set	-2660
▁Sim	-2661
▁argu	-2662
▁fair	-2663
▁netw	-2664
▁soft	-2665
▁cross	-2666
▁Palest	-2667
▁became	-2668
▁output	-2669
▁refugees	-2670
▁generation	-2671
▁alternative	-2672
▁€	-2673
▁ir	-2674
▁Sen	-2675
▁arr	-2676
▁took	-2677
rought	-2678
▁avail	-2679
▁source	-2680
▁rapidly	-2681
▁experien	-2682
▁ce	-2683
▁Sea	-2684
▁dram	-2685
▁leave	-2686
▁Indian	-2687
▁allies	-2688
▁pursue	-2689
▁explain	-2690
▁focused	-2691
▁limited	-2692
▁reached	-2693
▁stimulus	-2694
▁corruption	-2695
ody	-2696
▁mut	-2697
ature	-2698
▁grad	-2699
▁host	-2700
▁mess	-2701
▁goals	-2702
▁scale	-2703
▁helped	-2704
▁subsid	-2705
▁quickly	-2706
▁internal	-2707
▁societies	-2708
▁ste	-2709
iquid	-2710
ories	-2711
▁mere	-2712
▁sett	-2713
▁gains	-2714
ptember	-2715
▁movement	-2716
▁organizations	-2717
lant	-2718
▁Can	-2719
▁How	-2720
▁Trade	-2721
▁facing	-2722
▁produce	-2723
▁weapons	-2724
▁announced	-2725
ane	-2726
ili	-2727
ony	-2728
▁$2	-2729
SEAN	-2730
omin	-2731
▁mid	-2732
▁analy	-2733
▁consensus	-2734
4%	-2735
▁enh	-2736
▁fig	-2737
▁suc	-2738
orial	-2739
▁macro	-2740
▁twent	-2741
▁succeed	-2742
▁trading	-2743
▁behavior	-2744
▁referend	-2745
▁solution	-2746
▁September	-2747
▁effectively	-2748
-2	-2749
bu	-2750
ilt	-2751
▁II	-2752
sive	-2753
▁answ	-2754
iciency	-2755
▁Federal	-2756
▁sanctions	-2757
▁membership	-2758
6%	-2759
ots	-2760
▁BE	-2761
aper	-2762
▁Eng	-2763
osing	-2764
▁kill	-2765
ressed	-2766
▁imper	-2767
▁offer	-2768
▁borders	-2769
▁initiative	-2770
apse	-2771
▁196	-2772
▁raise	-2773
▁worth	-2774
▁Govern	-2775
▁Second	-2776
▁negative	-2777
▁decisions	-2778
▁incentives	-2779
kn	-2780
ees	-2781
▁ign	-2782
gence	-2783
ology	-2784
▁Most	-2785
▁Sing	-2786
▁easy	-2787
▁afford	-2788
▁overall	-2789
▁Although	-2790
▁contract	-2791
▁encourage	-2792
▁households	-2793
▁opposition	-2794
OND	-2795
▁Sw	-2796
ries	-2797
▁Sec	-2798
ijing	-2799
▁side	-2800
▁spec	-2801
▁doubt	-2802
▁embra	-2803
▁thing	-2804
▁secure	-2805
▁facilit	-2806
▁committed	-2807
▁consumers	-2808
▁commercial	-2809
7%	-2810
▁($	-2811
ONDON	-2812
ented	-2813
lling	-2814
pping	-2815
right	-2816
▁repl	-2817
▁tool	-2818
▁assoc	-2819
▁basis	-2820
▁fully	-2821
▁LONDON	-2822
▁chance	-2823
▁knowledge	-2824
▁independence	-2825
aud	-2826
▁12	-2827
draw	-2828
▁wat	-2829
andid	-2830
ashing	-2831
encies	-2832
policy	-2833
▁acceler	-2834
▁special	-2835
▁importance	-2836
els	-2837
ita	-2838
rain	-2839
▁ask	-2840
▁Last	-2841
▁seek	-2842
▁ASEAN	-2843
▁cover	-2844
▁legis	-2845
▁trust	-2846
▁words	-2847
▁critic	-2848
▁biggest	-2849
▁clearly	-2850
▁outside	-2851
▁diplomatic	-2852
oph	-2853
▁2.	-2854
▁203	-2855
▁Per	-2856
▁Pol	-2857
▁2000	-2858
▁From	-2859
▁boom	-2860
▁trou	-2861
▁claims	-2862
▁liquid	-2863
▁results	-2864
abilities	-2865
▁activities	-2866
▁significantly	-2867
eng	-2868
▁NA	-2869
▁let	-2870
▁typ	-2871
inton	-2872
▁Over	-2873
▁area	-2874
▁stop	-2875
▁divid	-2876
▁ideas	-2877
▁Mexico	-2878
▁manage	-2879
▁collapse	-2880
▁suggests	-2881
co	-2882
▁-	-2883
equ	-2884
▁fri	-2885
acter	-2886
aries	-2887
eneral	-2888
▁occur	-2889
▁study	-2890
unction	-2891
▁abroad	-2892
atically	-2893
▁Beijing	-2894
▁Clinton	-2895
▁savings	-2896
▁Argentina	-2897
▁sovereign	-2898
▁immigration	-2899
tr	-2900
ORK	-2901
ites	-2902
omes	-2903
▁Joh	-2904
order	-2905
▁Just	-2906
▁YORK	-2907
▁hous	-2908
▁sent	-2909
▁wrong	-2910
▁Invest	-2911
▁candid	-2912
▁culture	-2913
▁funding	-2914
▁confront	-2915
▁Secretary	-2916
▁geopolitical	-2917
of	-2918
wan	-2919
iety	-2920
▁Ken	-2921
▁deg	-2922
arity	-2923
rehen	-2924
acific	-2925
▁known	-2926
▁latest	-2927
▁reject	-2928
▁saving	-2929
▁accounts	-2930
▁determin	-2931
▁efficient	-2932
▁regulatory	-2933
7.	-2934
ded	-2935
hel	-2936
pro	-2937
▁Ma	-2938
▁hy	-2939
▁gap	-2940
▁hop	-2941
▁virt	-2942
arlier	-2943
ustain	-2944
▁Paris	-2945
▁capita	-2946
▁caused	-2947
▁implic	-2948
▁matter	-2949
▁nation	-2950
▁instead	-2951
▁seeking	-2952
▁questions	-2953
▁partnership	-2954
ping	-2955
▁Des	-2956
▁age	-2957
▁uns	-2958
▁surv	-2959
▁writ	-2960
▁federal	-2961
▁matters	-2962
▁regions	-2963
▁personal	-2964
▁migration	-2965
▁referendum	-2966
CD	-2967
uth	-2968
ault	-2969
olid	-2970
▁193	-2971
▁Tai	-2972
▁John	-2973
▁tend	-2974
▁border	-2975
▁engine	-2976
▁throughout	-2977
1%	-2978
ext	-2979
▁Organ	-2980
▁serve	-2981
▁contain	-2982
▁outcome	-2983
▁warming	-2984
▁withdraw	-2985
▁prospects	-2986
▁strategies	-2987
nces	-2988
ought	-2989
▁aimed	-2990
▁whole	-2991
▁Taiwan	-2992
▁allowed	-2993
▁slowdown	-2994
▁0.	-2995
▁Ke	-2996
ibly	-2997
rist	-2998
▁Dep	-2999
▁Lond	-3000
▁plat	-3001
action	-3002
▁plans	-3003
ovember	-3004
▁normal	-3005
▁imports	-3006
▁available	-3007
▁confidence	-3008
▁management	-3009
▁competitive	-3010
▁Ab	-3011
▁red	-3012
▁mark	-3013
▁basic	-3014
▁tight	-3015
▁London	-3016
▁disast	-3017
usterity	-3018
▁Reserve	-3019
▁broader	-3020
▁quality	-3021
▁proposed	-3022
▁commodity	-3023
▁agreements	-3024
umb	-3025
val	-3026
grow	-3027
lled	-3028
▁fix	-3029
iment	-3030
▁jour	-3031
ishing	-3032
▁faces	-3033
▁agreed	-3034
▁imposs	-3035
▁November	-3036
▁property	-3037
▁parliament	-3038
▁initiatives	-3039
▁Organization	-3040
used	-3041
▁mot	-3042
inian	-3043
lantic	-3044
▁talks	-3045
▁distrib	-3046
▁sources	-3047
▁eventually	-3048
▁territorial	-3049
1.	-3050
TON	-3051
anu	-3052
erc	-3053
▁aw	-3054
0,000	-3055
light	-3056
▁explo	-3057
▁moral	-3058
▁minist	-3059
▁spread	-3060
▁company	-3061
▁consist	-3062
▁reasons	-3063
▁required	-3064
▁strengthening	-3065
aid	-3066
lig	-3067
▁My	-3068
erate	-3069
▁came	-3070
▁frag	-3071
▁vast	-3072
cember	-3073
urance	-3074
ilities	-3075
▁Finally	-3076
▁electric	-3077
▁currencies	-3078
▁competitiveness	-3079
8%	-3080
nam	-3081
war	-3082
▁Cam	-3083
▁jud	-3084
racies	-3085
▁2015,	-3086
▁front	-3087
▁choice	-3088
▁family	-3089
▁forced	-3090
▁legitim	-3091
rehensive	-3092
▁improving	-3093
▁vulnerable	-3094
5,	-3095
ax	-3096
ann	-3097
aul	-3098
▁Co	-3099
▁men	-3100
▁won	-3101
▁House	-3102
▁clean	-3103
▁sides	-3104
▁surve	-3105
▁equity	-3106
▁protest	-3107
▁Likewise	-3108
▁communic	-3109
▁increases	-3110
▁understanding	-3111
jo	-3112
osp	-3113
▁Col	-3114
ellig	-3115
lands	-3116
▁cases	-3117
ulation	-3118
▁assess	-3119
▁brought	-3120
▁meaning	-3121
▁December	-3122
▁undermin	-3123
▁Communist	-3124
▁austerity	-3125
▁direction	-3126
▁impossible	-3127
▁enterprises	-3128
3%	-3129
cast	-3130
duct	-3131
izes	-3132
zero	-3133
fully	-3134
▁June	-3135
▁Kong	-3136
▁push	-3137
▁ties	-3138
▁week	-3139
▁limit	-3140
▁recon	-3141
fficient	-3142
▁comprom	-3143
▁describ	-3144
▁targets	-3145
▁estimated	-3146
▁providing	-3147
▁independent	-3148
af	-3149
hic	-3150
ique	-3151
▁Its	-3152
▁Lib	-3153
▁cal	-3154
▁tas	-3155
ossil	-3156
▁Hong	-3157
▁NATO	-3158
▁core	-3159
▁opin	-3160
ancial	-3161
▁answer	-3162
▁models	-3163
▁person	-3164
▁speech	-3165
▁Islamic	-3166
▁primary	-3167
▁victory	-3168
▁thinking	-3169
▁Republican	-3170
▁contribute	-3171
▁efficiency	-3172
oks	-3173
▁Tw	-3174
cont	-3175
emic	-3176
rene	-3177
uine	-3178
vert	-3179
going	-3180
▁2010	-3181
▁repe	-3182
▁poore	-3183
▁solid	-3184
▁seemed	-3185
▁widely	-3186
▁actions	-3187
▁conserv	-3188
▁economics	-3189
augh	-3190
rary	-3191
▁Mer	-3192
▁era	-3193
▁city	-3194
▁mist	-3195
▁Simil	-3196
▁loans	-3197
▁elimin	-3198
▁demands	-3199
▁housing	-3200
▁students	-3201
▁regulation	-3202
▁individuals	-3203
▁construction	-3204
▁transformation	-3205
car	-3206
hem	-3207
oot	-3208
uct	-3209
ried	-3210
ompan	-3211
▁York	-3212
▁calls	-3213
▁shows	-3214
▁dangerous	-3215
▁transport	-3216
▁University	-3217
app	-3218
auc	-3219
▁30	-3220
Euro	-3221
itud	-3222
▁sal	-3223
▁name	-3224
▁plac	-3225
▁extra	-3226
actions	-3227
reprene	-3228
▁George	-3229
▁damage	-3230
▁stabil	-3231
▁becomes	-3232
▁improved	-3233
ustainable	-3234
▁ultimately	-3235
▁intervention	-3236
AS	-3237
▁No	-3238
▁Pl	-3239
▁bi	-3240
Chin	-3241
ignt	-3242
orks	-3243
▁Med	-3244
▁circ	-3245
▁days	-3246
▁port	-3247
atever	-3248
outher	-3249
▁drive	-3250
▁heart	-3251
▁visit	-3252
▁argued	-3253
▁disput	-3254
▁fossil	-3255
▁robust	-3256
▁attacks	-3257
▁deliver	-3258
mar	-3259
ecut	-3260
▁det	-3261
ignty	-3262
ustom	-3263
▁adap	-3264
▁flex	-3265
▁save	-3266
▁2014,	-3267
▁adopt	-3268
▁argue	-3269
▁confere	-3270
▁dynamic	-3271
▁subject	-3272
▁conflicts	-3273
▁therefore	-3274
2%	-3275
4,	-3276
do	-3277
elt	-3278
kel	-3279
▁$3	-3280
▁CA	-3281
▁Rev	-3282
▁2006	-3283
▁draw	-3284
▁mort	-3285
▁barri	-3286
ference	-3287
▁nature	-3288
▁trying	-3289
▁conclud	-3290
▁treatment	-3291
▁expectations	-3292
▁Ph	-3293
▁100	-3294
▁Jin	-3295
▁inev	-3296
▁size	-3297
Europe	-3298
▁displ	-3299
▁assert	-3300
▁enable	-3301
▁faster	-3302
▁planet	-3303
▁complete	-3304
▁payments	-3305
▁considerable	-3306
nal	-3307
enth	-3308
▁bro	-3309
▁built	-3310
▁stake	-3311
outhern	-3312
▁online	-3313
▁earlier	-3314
▁falling	-3315
▁addition	-3316
▁directly	-3317
▁character	-3318
▁politically	-3319
EN	-3320
▁Bo	-3321
▁CO	-3322
edly	-3323
hers	-3324
isms	-3325
▁flo	-3326
apore	-3327
reced	-3328
third	-3329
verse	-3330
▁1990	-3331
▁cuts	-3332
▁harm	-3333
▁reve	-3334
▁parts	-3335
▁Though	-3336
▁Despite	-3337
▁Jinping	-3338
▁advance	-3339
▁constra	-3340
▁disease	-3341
▁farmers	-3342
▁service	-3343
recedented	-3344
▁estimates	-3345
▁liquidity	-3346
▁promoting	-3347
▁sovereignty	-3348
aff	-3349
off	-3350
ott	-3351
unt	-3352
▁pus	-3353
isely	-3354
ietnam	-3355
ieving	-3356
▁diver	-3357
▁final	-3358
▁range	-3359
▁steps	-3360
▁Merkel	-3361
▁closer	-3362
▁margin	-3363
▁office	-3364
▁helping	-3365
▁pattern	-3366
▁collabor	-3367
▁followed	-3368
▁greatest	-3369
▁reflects	-3370
▁sustained	-3371
▁terrorism	-3372
▁unprecedented	-3373
men	-3374
ubl	-3375
▁DC	-3376
hern	-3377
which	-3378
▁fell	-3379
▁sens	-3380
ension	-3381
levant	-3382
▁equal	-3383
▁sound	-3384
▁Eastern	-3385
▁Vietnam	-3386
▁dollars	-3387
▁promise	-3388
▁combined	-3389
▁entreprene	-3390
par	-3391
▁Am	-3392
rust	-3393
▁wel	-3394
asion	-3395
▁list	-3396
▁trig	-3397
sector	-3398
▁Treat	-3399
century	-3400
▁events	-3401
▁reduced	-3402
▁ensuring	-3403
▁provided	-3404
▁supposed	-3405
▁agriculture	-3406
▁instability	-3407
lad	-3408
▁194	-3409
▁202	-3410
▁BRI	-3411
house	-3412
▁imag	-3413
▁purp	-3414
▁corre	-3415
▁joint	-3416
▁quarter	-3417
▁thought	-3418
ashington	-3419
ventional	-3420
▁launched	-3421
▁Singapore	-3422
▁reduction	-3423
▁Parliament	-3424
▁difference	-3425
▁democracies	-3426
▁uncertainty	-3427
▁macroeconomic	-3428
3,	-3429
lar	-3430
eria	-3431
ogue	-3432
▁Only	-3433
▁publ	-3434
▁scen	-3435
▁Chile	-3436
▁prime	-3437
▁quant	-3438
▁volat	-3439
▁yield	-3440
elligence	-3441
▁generate	-3442
▁produced	-3443
▁strength	-3444
▁pollution	-3445
▁structure	-3446
pir	-3447
aled	-3448
care	-3449
▁fre	-3450
▁unf	-3451
▁laws	-3452
▁Other	-3453
▁imbal	-3454
▁appear	-3455
▁Austral	-3456
▁activity	-3457
▁excessive	-3458
▁legitimacy	-3459
▁scientific	-3460
5.	-3461
angu	-3462
ocks	-3463
utes	-3464
▁meant	-3465
▁space	-3466
▁exceed	-3467
▁losses	-3468
▁partly	-3469
▁lending	-3470
▁raising	-3471
▁authority	-3472
▁Democratic	-3473
▁historical	-3474
▁innovative	-3475
MB	-3476
cto	-3477
▁adm	-3478
▁bub	-3479
▁tur	-3480
ching	-3481
▁Both	-3482
▁Octo	-3483
▁book	-3484
▁mach	-3485
▁orig	-3486
reland	-3487
▁aband	-3488
▁advoc	-3489
▁rural	-3490
aterial	-3491
▁double	-3492
▁October	-3493
▁opinion	-3494
▁Similarly	-3495
▁practices	-3496
▁comprehensive	-3497
my	-3498
yed	-3499
ains	-3500
▁50%	-3501
▁Janu	-3502
▁game	-3503
▁safe	-3504
▁2008,	-3505
▁autom	-3506
▁wants	-3507
▁Instit	-3508
▁Ireland	-3509
▁January	-3510
▁adopted	-3511
▁affairs	-3512
▁highest	-3513
▁measure	-3514
▁consolid	-3515
▁migrants	-3516
▁assistance	-3517
▁regulations	-3518
▁Br	-3519
cale	-3520
iter	-3521
oman	-3522
▁Ass	-3523
▁Soc	-3524
ittee	-3525
scale	-3526
▁canc	-3527
▁cash	-3528
▁fost	-3529
▁minim	-3530
▁story	-3531
▁Treaty	-3532
▁merely	-3533
▁simple	-3534
▁genuine	-3535
▁leaving	-3536
▁Partners	-3537
▁religious	-3538
▁responsible	-3539
CS	-3540
ety	-3541
book	-3542
▁Dav	-3543
cause	-3544
ender	-3545
▁phys	-3546
ifying	-3547
▁stagn	-3548
▁Econom	-3549
▁burden	-3550
▁driven	-3551
▁underp	-3552
▁Climate	-3553
▁achieved	-3554
▁Washington	-3555
EL	-3556
▁lot	-3557
▁sen	-3558
▁spur	-3559
▁zero	-3560
▁views	-3561
orthern	-3562
▁Korean	-3563
▁easing	-3564
▁remark	-3565
▁theory	-3566
▁urgent	-3567
▁message	-3568
▁neither	-3569
▁threats	-3570
▁barriers	-3571
▁controls	-3572
▁material	-3573
▁restrict	-3574
▁collective	-3575
▁objectives	-3576
▁experienced	-3577
▁agricultural	-3578
li	-3579
back	-3580
rest	-3581
▁His	-3582
ether	-3583
ients	-3584
▁tell	-3585
idency	-3586
▁2013,	-3587
▁depos	-3588
▁going	-3589
▁minor	-3590
▁seven	-3591
▁wages	-3592
centage	-3593
▁factor	-3594
▁scenar	-3595
▁General	-3596
▁abandon	-3597
▁tensions	-3598
▁expanding	-3599
▁addressing	-3600
cap	-3601
inks	-3602
state	-3603
uting	-3604
▁Vlad	-3605
▁batt	-3606
▁grew	-3607
▁vacc	-3608
▁enorm	-3609
▁limits	-3610
▁moving	-3611
▁narrow	-3612
▁changed	-3613
▁radical	-3614
▁specific	-3615
▁inclusive	-3616
▁universal	-3617
▁Investment	-3618
▁associated	-3619
▁integrated	-3620
▁Partnership	-3621
▁participation	-3622
▁"	-3623
know	-3624
ynes	-3625
▁hit	-3626
▁pan	-3627
▁try	-3628
owned	-3629
▁2009	-3630
ellect	-3631
▁spent	-3632
▁stage	-3633
▁takes	-3634
ialogue	-3635
▁actors	-3636
▁deprec	-3637
▁extent	-3638
▁concent	-3639
▁finally	-3640
▁journal	-3641
▁declared	-3642
▁forecast	-3643
▁standard	-3644
▁training	-3645
▁diplomacy	-3646
▁conference	-3647
▁principles	-3648
▁Republicans	-3649
lif	-3650
icip	-3651
oses	-3652
▁Mac	-3653
▁mer	-3654
▁pun	-3655
aches	-3656
▁July	-3657
▁enjo	-3658
▁2010,	-3659
▁Canad	-3660
▁March	-3661
▁field	-3662
▁optim	-3663
▁apprec	-3664
▁execut	-3665
▁played	-3666
▁treaty	-3667
▁appears	-3668
▁context	-3669
▁partner	-3670
▁allowing	-3671
▁transfer	-3672
▁economist	-3673
▁immediate	-3674
▁ec	-3675
ands	-3676
icro	-3677
imir	-3678
inet	-3679
look	-3680
semb	-3681
comes	-3682
▁arms	-3683
Americ	-3684
undred	-3685
▁bound	-3686
▁ratio	-3687
holders	-3688
▁custom	-3689
▁safety	-3690
▁viewed	-3691
▁elected	-3692
▁sharply	-3693
▁Vladimir	-3694
▁apparent	-3695
▁promises	-3696
▁deflation	-3697
▁precisely	-3698
▁sufficient	-3699
▁electricity	-3700
ze	-3701
ECD	-3702
▁Su	-3703
▁gra	-3704
iable	-3705
▁join	-3706
▁welf	-3707
▁block	-3708
▁truth	-3709
Pacific	-3710
related	-3711
▁medium	-3712
▁conduct	-3713
▁incomes	-3714
▁changing	-3715
▁everywhere	-3716
8,	-3717
sy	-3718
pri	-3719
▁3.	-3720
anda	-3721
itig	-3722
nder	-3723
▁20%	-3724
▁Abe	-3725
▁flow	-3726
govern	-3727
itting	-3728
▁compl	-3729
▁occup	-3730
▁tools	-3731
lements	-3732
▁circum	-3733
▁tariff	-3734
▁turned	-3735
▁reinfor	-3736
▁running	-3737
▁anything	-3738
▁remained	-3739
▁coalition	-3740
▁capitalism	-3741
2,	-3742
US	-3743
hib	-3744
ops	-3745
bank	-3746
uman	-3747
▁pace	-3748
ortion	-3749
▁Third	-3750
▁oblig	-3751
▁happen	-3752
▁produc	-3753
▁amounts	-3754
▁coordin	-3755
▁experts	-3756
▁welfare	-3757
▁populist	-3758
▁provides	-3759
▁supported	-3760
IV	-3761
stit	-3762
▁Not	-3763
▁har	-3764
▁hur	-3765
idesp	-3766
▁Cold	-3767
▁OECD	-3768
▁Road	-3769
▁acqu	-3770
▁base	-3771
▁dict	-3772
▁enab	-3773
▁rele	-3774
coming	-3775
onents	-3776
▁separ	-3777
▁shown	-3778
▁worry	-3779
▁Christ	-3780
▁Poland	-3781
▁insist	-3782
▁intens	-3783
▁mention	-3784
idespread	-3785
▁southern	-3786
▁intellect	-3787
arc	-3788
yle	-3789
▁Bl	-3790
mine	-3791
▁Unf	-3792
▁tro	-3793
▁here	-3794
▁mand	-3795
▁task	-3796
ureauc	-3797
▁langu	-3798
▁giving	-3799
▁percentage	-3800
▁presidency	-3801
▁possibility	-3802
▁developments	-3803
ev	-3804
nic	-3805
see	-3806
▁2%	-3807
-201	-3808
oric	-3809
▁Har	-3810
▁Sil	-3811
▁pen	-3812
build	-3813
cular	-3814
heast	-3815
ilies	-3816
ipher	-3817
▁2020	-3818
▁pain	-3819
▁rhet	-3820
▁team	-3821
porary	-3822
▁hopes	-3823
▁Keynes	-3824
▁acknow	-3825
▁cancer	-3826
▁origin	-3827
▁hundred	-3828
▁ongoing	-3829
▁generally	-3830
▁widespread	-3831
DGE	-3832
pay	-3833
▁50	-3834
-200	-3835
MBRI	-3836
ethe	-3837
▁ord	-3838
▁Saud	-3839
▁pack	-3840
▁tack	-3841
rative	-3842
▁manip	-3843
▁stead	-3844
MBRIDGE	-3845
▁During	-3846
▁instru	-3847
▁trends	-3848
▁Because	-3849
▁bureauc	-3850
▁implies	-3851
▁designed	-3852
▁leverage	-3853
▁CAMBRIDGE	-3854
▁borrowing	-3855
▁profession	-3856
▁Unfortunately	-3857
▁Mc	-3858
ares	-3859
fect	-3860
iles	-3861
raft	-3862
endit	-3863
▁defe	-3864
▁hour	-3865
▁vers	-3866
▁wage	-3867
illing	-3868
▁carry	-3869
▁fears	-3870
▁resil	-3871
itative	-3872
▁easier	-3873
▁places	-3874
▁stands	-3875
▁Another	-3876
▁concept	-3877
▁depends	-3878
▁various	-3879
▁agencies	-3880
▁annually	-3881
▁argument	-3882
▁contrary	-3883
▁peripher	-3884
▁fundament	-3885
▁insurance	-3886
▁intelligence	-3887
2.	-3888
ls	-3889
mo	-3890
rat	-3891
son	-3892
ames	-3893
more	-3894
▁beg	-3895
▁lose	-3896
▁talk	-3897
▁wind	-3898
▁unique	-3899
standing	-3900
▁bankers	-3901
▁managed	-3902
▁families	-3903
▁pursuing	-3904
▁received	-3905
▁revenues	-3906
▁Democrats	-3907
▁Financial	-3908
▁investing	-3909
▁ministers	-3910
▁objective	-3911
▁engagement	-3912
▁mechanisms	-3913
▁scientists	-3914
The	-3915
ote	-3916
ieth	-3917
mark	-3918
vail	-3919
▁195	-3920
▁30%	-3921
▁60%	-3922
▁Thus	-3923
▁pled	-3924
▁went	-3925
▁fuels	-3926
▁prove	-3927
▁sharp	-3928
▁solar	-3929
▁choose	-3930
▁easily	-3931
▁raised	-3932
▁temper	-3933
ographic	-3934
▁started	-3935
▁outcomes	-3936
▁perspect	-3937
▁guarantee	-3938
▁undermine	-3939
▁productive	-3940
▁transactions	-3941
DS	-3942
ASH	-3943
ogle	-3944
▁40%	-3945
▁Whe	-3946
▁log	-3947
China	-3948
▁Fore	-3949
▁Port	-3950
▁root	-3951
▁whom	-3952
iented	-3953
▁Trans	-3954
▁adapt	-3955
▁debts	-3956
▁thous	-3957
▁issued	-3958
▁mostly	-3959
▁mutual	-3960
▁perman	-3961
European	-3962
▁arrange	-3963
▁enormous	-3964
▁expendit	-3965
▁rhetoric	-3966
ery	-3967
ira	-3968
isc	-3969
orb	-3970
▁mal	-3971
▁Face	-3972
▁Serb	-3973
▁firm	-3974
ASHING	-3975
idered	-3976
▁2012,	-3977
▁secur	-3978
▁speak	-3979
▁worst	-3980
▁unless	-3981
▁himself	-3982
▁smaller	-3983
▁whereas	-3984
ASHINGTON	-3985
▁profound	-3986
▁renewable	-3987
▁considered	-3988
▁everything	-3989
▁operations	-3990
▁differences	-3991
▁intellectual	-3992
▁entrepreneurs	-3993
▁sustainability	-3994
4.	-3995
sc	-3996
xim	-3997
angh	-3998
▁Cal	-3999
▁HIV	-4000
▁Ham	-4001
▁squ	-4002
▁unw	-4003
ulate	-4004
▁rare	-4005
▁stem	-4006
istics	-4007
itious	-4008
▁grown	-4009
▁perce	-4010
▁spend	-4011
▁anyone	-4012
▁defend	-4013
▁mainly	-4014
▁sought	-4015
▁getting	-4016
▁accompan	-4017
▁exception	-4018
▁principle	-4019
▁populations	-4020
-19	-4021
ONG	-4022
rid	-4023
ugh	-4024
ull	-4025
aves	-4026
▁buy	-4027
eenth	-4028
▁wars	-4029
carbon	-4030
▁Saudi	-4031
▁learn	-4032
▁mortg	-4033
▁obser	-4034
▁round	-4035
reasury	-4036
▁Google	-4037
▁ethnic	-4038
▁Indones	-4039
▁disrupt	-4040
▁disputes	-4041
▁happened	-4042
▁includes	-4043
▁relevant	-4044
▁resource	-4045
▁WASHINGTON	-4046
▁nationalism	-4047
▁establishment	-4048
.)	-4049
fuel	-4050
iled	-4051
llor	-4052
adequ	-4053
level	-4054
▁paid	-4055
▁prem	-4056
anghai	-4057
border	-4058
lusion	-4059
▁overw	-4060
▁shock	-4061
▁appeal	-4062
▁belief	-4063
▁devast	-4064
▁inform	-4065
▁revers	-4066
▁specul	-4067
▁friends	-4068
▁initial	-4069
▁revenue	-4070
▁Shanghai	-4071
▁involved	-4072
▁scenario	-4073
▁underpin	-4074
▁construct	-4075
▁discussion	-4076
▁regulators	-4077
▁implemented	-4078
▁authoritarian	-4079
met	-4080
ode	-4081
sis	-4082
▁der	-4083
▁spir	-4084
▁susp	-4085
aching	-4086
▁2011,	-4087
▁Greek	-4088
▁mount	-4089
▁Beyond	-4090
▁comput	-4091
▁engage	-4092
▁option	-4093
▁Facebook	-4094
▁circumst	-4095
▁credible	-4096
▁dialogue	-4097
▁priority	-4098
▁struggle	-4099
▁declining	-4100
▁economically	-4101
▁implications	-4102
▁liberalization	-4103
la	-4104
ox	-4105
enh	-4106
mon	-4107
uck	-4108
▁fa	-4109
ager	-4110
eron	-4111
kept	-4112
▁Ber	-4113
▁Sch	-4114
gency	-4115
rimin	-4116
herent	-4117
stream	-4118
ulated	-4119
▁2016,	-4120
▁dimin	-4121
▁ended	-4122
▁deeply	-4123
▁default	-4124
▁heavily	-4125
▁returns	-4126
▁alliance	-4127
▁Australia	-4128
▁subsidies	-4129
▁continuing	-4130
▁commitments	-4131
▁25	-4132
▁Pr	-4133
iang	-4134
pril	-4135
▁Bur	-4136
ilipp	-4137
ional	-4138
▁drop	-4139
atures	-4140
▁frequ	-4141
▁vehic	-4142
connect	-4143
raction	-4144
▁Portug	-4145
▁infect	-4146
▁travel	-4147
▁England	-4148
▁compris	-4149
▁driving	-4150
▁inadequ	-4151
▁opening	-4152
▁poorest	-4153
▁prevail	-4154
▁setting	-4155
▁turning	-4156
▁entirely	-4157
▁function	-4158
▁networks	-4159
▁overwhel	-4160
▁Institute	-4161
▁ambitious	-4162
▁circumstances	-4163
EO	-4164
iant	-4165
igor	-4166
sels	-4167
ustr	-4168
▁Mal	-4169
asing	-4170
count	-4171
itter	-4172
▁isol	-4173
sembly	-4174
▁Under	-4175
▁adequ	-4176
▁cyber	-4177
▁shape	-4178
▁compar	-4179
▁conver	-4180
▁destro	-4181
▁fallen	-4182
▁Cameron	-4183
▁Philipp	-4184
▁involve	-4185
▁resolve	-4186
▁towards	-4187
▁Consider	-4188
▁appropri	-4189
▁bringing	-4190
▁peaceful	-4191
▁described	-4192
▁territory	-4193
▁Revolution	-4194
▁greenhouse	-4195
▁volatility	-4196
▁dramatically	-4197
▁Er	-4198
dden	-4199
rich	-4200
▁ban	-4201
▁hon	-4202
chang	-4203
inary	-4204
itude	-4205
▁1980	-4206
▁Comp	-4207
▁bail	-4208
▁lies	-4209
▁rank	-4210
▁rely	-4211
▁told	-4212
luding	-4213
▁eight	-4214
▁heavy	-4215
▁quite	-4216
itation	-4217
▁Social	-4218
▁worked	-4219
exchange	-4220
▁absence	-4221
▁decided	-4222
▁regimes	-4223
▁boosting	-4224
▁promised	-4225
▁Indonesia	-4226
▁resulting	-4227
▁sometimes	-4228
▁virtually	-4229
▁legislation	-4230
eb	-4231
gn	-4232
fin	-4233
▁16	-4234
▁Gu	-4235
rage	-4236
wing	-4237
▁dead	-4238
▁peak	-4239
▁stay	-4240
▁April	-4241
▁accum	-4242
▁exerc	-4243
▁forms	-4244
▁Rather	-4245
▁ruling	-4246
▁senior	-4247
▁signed	-4248
▁victim	-4249
etheless	-4250
▁enforce	-4251
▁medical	-4252
▁offered	-4253
▁achieving	-4254
▁seriously	-4255
▁tradition	-4256
▁imbalances	-4257
▁immigrants	-4258
▁encouraging	-4259
▁establishing	-4260
BO	-4261
sts	-4262
▁13	-4263
▁vo	-4264
fall	-4265
rian	-4266
▁reb	-4267
▁sex	-4268
being	-4269
▁bold	-4270
arency	-4271
▁added	-4272
▁alloc	-4273
▁colle	-4274
▁mitig	-4275
▁Canada	-4276
▁causes	-4277
▁multip	-4278
▁police	-4279
▁sudden	-4280
▁Foreign	-4281
▁nations	-4282
▁learning	-4283
▁prepared	-4284
▁adjustment	-4285
ao	-4286
enn	-4287
▁10	-4288
▁gl	-4289
ints	-4290
lied	-4291
olst	-4292
▁Paul	-4293
▁east	-4294
▁Forum	-4295
▁Their	-4296
▁faced	-4297
▁lines	-4298
▁rebal	-4299
▁track	-4300
▁deaths	-4301
▁owners	-4302
oriented	-4303
▁playing	-4304
▁believed	-4305
▁Committee	-4306
▁positions	-4307
▁published	-4308
▁twentieth	-4309
▁maintaining	-4310
yl	-4311
leb	-4312
ague	-4313
enez	-4314
osov	-4315
reet	-4316
▁80%	-4317
▁Nig	-4318
▁Non	-4319
aught	-4320
licit	-4321
▁capt	-4322
▁evol	-4323
▁goes	-4324
▁shap	-4325
▁trip	-4326
▁Kosov	-4327
▁mobil	-4328
▁remov	-4329
▁rival	-4330
▁tried	-4331
▁truly	-4332
enezuel	-4333
ivalent	-4334
▁Policy	-4335
▁hardly	-4336
▁resist	-4337
▁suffer	-4338
▁troops	-4339
▁wanted	-4340
▁purpose	-4341
▁identity	-4342
▁language	-4343
▁terrorist	-4344
▁aggressive	-4345
zy	-4346
▁17	-4347
▁5%	-4348
long	-4349
olar	-4350
uous	-4351
antly	-4352
first	-4353
▁Cour	-4354
▁earn	-4355
▁meth	-4356
▁sell	-4357
▁upon	-4358
iences	-4359
▁BRICS	-4360
▁asked	-4361
▁exact	-4362
▁motiv	-4363
uations	-4364
▁active	-4365
▁deeper	-4366
▁formal	-4367
▁proved	-4368
▁remind	-4369
▁appoint	-4370
▁embrace	-4371
▁healthy	-4372
▁receive	-4373
▁schools	-4374
▁Treasury	-4375
▁Venezuel	-4376
▁observers	-4377
▁otherwise	-4378
▁prosperous	-4379
▁represents	-4380
▁structures	-4381
▁supporting	-4382
▁combination	-4383
8.	-4384
ift	-4385
imb	-4386
ino	-4387
los	-4388
ods	-4389
▁ey	-4390
alle	-4391
▁Act	-4392
▁ric	-4393
iders	-4394
iring	-4395
lines	-4396
▁bene	-4397
▁bloc	-4398
▁rose	-4399
▁wast	-4400
▁Count	-4401
▁enact	-4402
▁ready	-4403
▁weeks	-4404
▁figure	-4405
▁showed	-4406
▁content	-4407
▁enhance	-4408
▁notably	-4409
▁technical	-4410
▁priorities	-4411
▁recognized	-4412
▁solidarity	-4413
▁Palestinian	-4414
▁transparency	-4415
AR	-4416
gen	-4417
pet	-4418
run	-4419
▁3%	-4420
comm	-4421
uses	-4422
▁Bal	-4423
power	-4424
▁2007	-4425
▁acad	-4426
▁feed	-4427
▁your	-4428
efense	-4429
▁dream	-4430
▁persu	-4431
▁sales	-4432
aration	-4433
▁desire	-4434
▁elites	-4435
▁prefer	-4436
▁emerged	-4437
ructuring	-4438
▁fighting	-4439
▁hundreds	-4440
▁reported	-4441
▁weakness	-4442
▁whatever	-4443
▁compromise	-4444
▁substantially	-4445
ula	-4446
bled	-4447
bles	-4448
fers	-4449
pass	-4450
adesh	-4451
trade	-4452
▁anim	-4453
▁foot	-4454
▁gave	-4455
▁phil	-4456
▁room	-4457
iately	-4458
▁Court	-4459
▁begun	-4460
▁bolst	-4461
▁cheap	-4462
▁spect	-4463
▁users	-4464
▁Colomb	-4465
▁Kosovo	-4466
▁mobile	-4467
▁plants	-4468
▁Perhaps	-4469
▁confron	-4470
▁equality	-4471
▁overcome	-4472
▁proposal	-4473
▁starters	-4474
▁thousands	-4475
▁introduced	-4476
▁potentially	-4477
▁corporations	-4478
CC	-4479
Es	-4480
su	-4481
▁$4	-4482
▁dri	-4483
▁due	-4484
ronic	-4485
ugust	-4486
uries	-4487
▁Bang	-4488
▁Krem	-4489
▁aging	-4490
▁knows	-4491
country	-4492
▁Health	-4493
▁battle	-4494
▁recomm	-4495
▁twenty	-4496
ancellor	-4497
▁Kremlin	-4498
▁choices	-4499
▁cutting	-4500
▁options	-4501
▁trouble	-4502
▁Portugal	-4503
▁although	-4504
▁planning	-4505
▁repeated	-4506
▁concerned	-4507
▁creditors	-4508
▁inadequate	-4509
▁credibility	-4510
▁immediately	-4511
uk	-4512
uan	-4513
▁Me	-4514
▁ut	-4515
ifth	-4516
ores	-4517
rote	-4518
▁Car	-4519
▁Jew	-4520
▁mur	-4521
class	-4522
illeg	-4523
rison	-4524
▁Ital	-4525
▁obst	-4526
▁Still	-4527
▁fewer	-4528
▁grand	-4529
▁light	-4530
▁paper	-4531
reement	-4532
▁Energy	-4533
▁compens	-4534
▁complic	-4535
▁correct	-4536
▁defined	-4537
▁persist	-4538
▁refugee	-4539
▁diseases	-4540
▁momentum	-4541
▁occurred	-4542
ordination	-4543
▁electoral	-4544
▁facilitate	-4545
▁inevitable	-4546
▁organization	-4547
doğ	-4548
ios	-4549
vis	-4550
▁11	-4551
▁14	-4552
▁6.	-4553
time	-4554
▁BEI	-4555
▁Sum	-4556
▁mor	-4557
▁psy	-4558
doğan	-4559
iforn	-4560
▁Swed	-4561
▁aver	-4562
▁diss	-4563
iction	-4564
▁Kenya	-4565
▁deals	-4566
▁fixed	-4567
▁solve	-4568
▁works	-4569
▁confir	-4570
▁crimin	-4571
▁desper	-4572
▁lesson	-4573
▁weight	-4574
▁Erdoğan	-4575
▁engaged	-4576
▁network	-4577
▁numbers	-4578
▁Californ	-4579
▁disaster	-4580
▁expanded	-4581
▁managing	-4582
▁neighbor	-4583
▁highlight	-4584
▁processes	-4585
▁equivalent	-4586
▁Philippines	-4587
▁demographic	-4588
che	-4589
let	-4590
oke	-4591
▁wa	-4592
oubt	-4593
▁Mod	-4594
▁Off	-4595
▁lay	-4596
▁thr	-4597
▁Grow	-4598
▁Plan	-4599
▁bill	-4600
▁body	-4601
▁fulf	-4602
astrop	-4603
▁chann	-4604
▁deval	-4605
▁faith	-4606
▁heads	-4607
▁wrote	-4608
▁assume	-4609
▁detail	-4610
▁offers	-4611
▁stance	-4612
▁closely	-4613
▁divided	-4614
▁enabled	-4615
▁players	-4616
▁slowing	-4617
▁welcome	-4618
▁demonstr	-4619
▁globally	-4620
▁mechanism	-4621
▁negotiate	-4622
▁remaining	-4623
▁protecting	-4624
▁counterpart	-4625
▁generations	-4626
▁perspective	-4627
▁capabilities	-4628
▁conservative	-4629
▁coordination	-4630
▁distribution	-4631
9%	-4632
AI	-4633
gas	-4634
▁1%	-4635
JING	-4636
bert	-4637
work	-4638
▁BER	-4639
▁Cub	-4640
▁nav	-4641
▁quo	-4642
acerb	-4643
anted	-4644
▁Will	-4645
▁wond	-4646
mented	-4647
▁1990’	-4648
▁decis	-4649
▁imped	-4650
▁looks	-4651
▁maxim	-4652
▁August	-4653
▁linked	-4654
▁summer	-4655
▁unable	-4656
▁causing	-4657
▁exacerb	-4658
▁exactly	-4659
▁imposed	-4660
▁learned	-4661
intensive	-4662
▁starting	-4663
▁addressed	-4664
▁emergence	-4665
▁permanent	-4666
▁platforms	-4667
▁producers	-4668
▁Chancellor	-4669
▁restructuring	-4670
ney	-4671
rud	-4672
enty	-4673
iagn	-4674
ires	-4675
resp	-4676
▁15%	-4677
▁dro	-4678
▁hor	-4679
irect	-4680
oking	-4681
▁arch	-4682
▁fert	-4683
▁says	-4684
▁stra	-4685
ground	-4686
inians	-4687
▁alike	-4688
▁champ	-4689
▁cycle	-4690
▁drugs	-4691
▁Arabia	-4692
▁degree	-4693
▁reluct	-4694
▁undert	-4695
▁BEIJING	-4696
▁Israeli	-4697
▁equally	-4698
▁holding	-4699
▁perfect	-4700
▁profits	-4701
▁reserve	-4702
▁restore	-4703
▁tariffs	-4704
▁historic	-4705
▁practice	-4706
▁contracts	-4707
▁movements	-4708
▁approaches	-4709
▁remarkable	-4710
▁unilateral	-4711
▁nationalist	-4712
▁willingness	-4713
▁quantitative	-4714
▁urbanization	-4715
rog	-4716
▁40	-4717
▁60	-4718
▁Ky	-4719
aily	-4720
arsh	-4721
cons	-4722
reen	-4723
▁Bro	-4724
▁bul	-4725
▁lag	-4726
▁sil	-4727
▁wis	-4728
orpor	-4729
risis	-4730
▁2017	-4731
▁Brus	-4732
▁Wall	-4733
▁race	-4734
idents	-4735
▁Those	-4736
▁hands	-4737
▁hours	-4738
▁illeg	-4739
▁nomin	-4740
▁signs	-4741
▁youth	-4742
▁fueled	-4743
▁joined	-4744
▁killed	-4745
▁offset	-4746
▁warned	-4747
▁critics	-4748
▁justice	-4749
▁lessons	-4750
▁Brussels	-4751
▁billions	-4752
▁supplies	-4753
▁candidate	-4754
▁concluded	-4755
▁typically	-4756
▁California	-4757
▁accelerate	-4758
▁attractive	-4759
▁accompanied	-4760
▁appropriate	-4761
▁unsustainable	-4762
PP	-4763
DGs	-4764
aut	-4765
sey	-4766
uit	-4767
▁Te	-4768
ancy	-4769
atis	-4770
size	-4771
▁Xia	-4772
anmar	-4773
rence	-4774
▁Then	-4775
▁lend	-4776
▁type	-4777
airman	-4778
ultane	-4779
▁blame	-4780
▁compe	-4781
▁leads	-4782
▁applic	-4783
▁gender	-4784
▁impose	-4785
▁preced	-4786
atlantic	-4787
security	-4788
▁centers	-4789
▁failing	-4790
▁figures	-4791
▁related	-4792
▁subsequ	-4793
▁humanity	-4794
▁reaching	-4795
▁surprise	-4796
▁catastrop	-4797
▁suffering	-4798
▁contributions	-4799
We	-4800
dr	-4801
iot	-4802
▁$5	-4803
▁Hu	-4804
▁li	-4805
ibet	-4806
▁Our	-4807
orter	-4808
usion	-4809
▁Ange	-4810
▁bott	-4811
▁dism	-4812
▁doct	-4813
▁align	-4814
▁celeb	-4815
▁earth	-4816
▁enabl	-4817
▁guide	-4818
▁noted	-4819
▁psych	-4820
▁twice	-4821
ificial	-4822
▁slight	-4823
▁calling	-4824
ibilities	-4825
ineteenth	-4826
▁explicit	-4827
▁possibly	-4828
▁shifting	-4829
▁primarily	-4830
▁reflected	-4831
▁simultane	-4832
▁Depression	-4833
▁resistance	-4834
▁conventional	-4835
▁partnerships	-4836
na	-4837
sk	-4838
add	-4839
▁ep	-4840
ties	-4841
with	-4842
▁70%	-4843
▁Bel	-4844
▁Eth	-4845
▁sea	-4846
▁shr	-4847
ipped	-4848
▁2011	-4849
▁Here	-4850
▁coup	-4851
▁ones	-4852
▁pill	-4853
apital	-4854
iberal	-4855
igrant	-4856
roduct	-4857
▁links	-4858
▁medic	-4859
▁speed	-4860
appoint	-4861
growing	-4862
▁bubble	-4863
▁deploy	-4864
▁slower	-4865
▁survey	-4866
American	-4867
national	-4868
▁Conserv	-4869
▁Constit	-4870
▁benefic	-4871
▁reports	-4872
▁sharing	-4873
▁dramatic	-4874
▁centuries	-4875
▁pressures	-4876
▁purchases	-4877
▁candidates	-4878
▁preventing	-4879
▁Fortunately	-4880
▁contributed	-4881
▁destruction	-4882
▁recognition	-4883
▁restrictions	-4884
AD	-4885
GO	-4886
IC	-4887
ray	-4888
spe	-4889
▁BR	-4890
ebru	-4891
port	-4892
▁Kim	-4893
agers	-4894
onent	-4895
▁Deng	-4896
▁aims	-4897
▁bear	-4898
▁exit	-4899
▁gone	-4900
▁symb	-4901
contro	-4902
▁board	-4903
▁norms	-4904
ebruary	-4905
▁Senate	-4906
▁legisl	-4907
▁viable	-4908
▁Muslims	-4909
▁capable	-4910
▁looking	-4911
▁putting	-4912
▁undoubt	-4913
▁advances	-4914
▁populism	-4915
▁protests	-4916
▁periphery	-4917
▁accountability	-4918
gic	-4919
soc	-4920
▁Li	-4921
adow	-4922
ches	-4923
fort	-4924
rack	-4925
reme	-4926
urch	-4927
▁205	-4928
▁Reg	-4929
▁Two	-4930
▁aud	-4931
ested	-4932
▁aris	-4933
▁tact	-4934
▁Tibet	-4935
▁elite	-4936
▁wider	-4937
ustrial	-4938
▁cooper	-4939
▁emerge	-4940
▁libert	-4941
▁weaker	-4942
▁Further	-4943
▁Myanmar	-4944
▁replace	-4945
▁patients	-4946
▁survival	-4947
▁perceived	-4948
▁undermining	-4949
▁overwhelming	-4950
▁collaboration	-4951
gu	-4952
aria	-4953
onom	-4954
▁fem	-4955
▁gir	-4956
▁mix	-4957
anish	-4958
arely	-4959
earch	-4960
oming	-4961
▁Bern	-4962
▁Coop	-4963
▁hege	-4964
▁irre	-4965
▁none	-4966
▁2017,	-4967
▁David	-4968
▁Polit	-4969
▁artic	-4970
▁chief	-4971
▁delay	-4972
▁scope	-4973
▁chains	-4974
▁explan	-4975
▁humans	-4976
▁retail	-4977
▁search	-4978
▁weather	-4979
▁February	-4980
▁emphasis	-4981
▁standing	-4982
▁suffered	-4983
liferation	-4984
▁criticism	-4985
▁dependent	-4986
▁extremely	-4987
▁temporary	-4988
▁accounting	-4989
▁advantages	-4990
▁consistent	-4991
▁previously	-4992
▁resolution	-4993
▁educational	-4994
▁participate	-4995
▁undoubtedly	-4996
▁implementation	-4997
9.	-4998
GDP	-4999
inf	-5000
▁Ac	-5001
cker	-5002
mosp	-5003
▁CEO	-5004
▁cry	-5005
▁wid	-5006
oping	-5007
▁Hill	-5008
▁enem	-5009
▁kept	-5010
▁tour	-5011
00,000	-5012
aining	-5013
arters	-5014
commun	-5015
depend	-5016
estate	-5017
lihood	-5018
▁2009,	-5019
▁Burma	-5020
▁Human	-5021
▁armed	-5022
▁court	-5023
▁reass	-5024
ogether	-5025
termine	-5026
▁Growth	-5027
▁aggreg	-5028
▁atmosp	-5029
▁conven	-5030
▁decent	-5031
▁modest	-5032
▁observ	-5033
▁shocks	-5034
▁stress	-5035
▁surely	-5036
▁united	-5037
outheast	-5038
▁diverse	-5039
▁trigger	-5040
inational	-5041
▁deposits	-5042
▁enabling	-5043
▁included	-5044
▁opposite	-5045
▁physical	-5046
▁platform	-5047
▁presence	-5048
▁strongly	-5049
▁Venezuela	-5050
▁determine	-5051
▁expensive	-5052
▁imperative	-5053
▁settlement	-5054
▁withdrawal	-5055
▁devastating	-5056
▁humanitarian	-5057
▁implementing	-5058
▁strengthened	-5059
▁universities	-5060
▁modernization	-5061
▁·	-5062
...	-5063
BOC	-5064
ari	-5065
isp	-5066
ken	-5067
oly	-5068
▁$6	-5069
▁Do	-5070
debt	-5071
free	-5072
idel	-5073
ikes	-5074
view	-5075
▁Ant	-5076
▁Pen	-5077
▁anx	-5078
▁ded	-5079
party	-5080
▁army	-5081
▁fort	-5082
ladesh	-5083
▁Again	-5084
▁Franc	-5085
▁doesn	-5086
▁monit	-5087
▁moved	-5088
▁multi	-5089
▁tempt	-5090
▁voted	-5091
▁Serbia	-5092
▁Syrian	-5093
▁gained	-5094
▁gather	-5095
▁Without	-5096
▁anticip	-5097
▁broadly	-5098
▁secular	-5099
▁discover	-5100
▁mobility	-5101
▁offering	-5102
▁rational	-5103
▁rejected	-5104
▁religion	-5105
▁Agreement	-5106
▁Bangladesh	-5107
▁nineteenth	-5108
▁Governments	-5109
▁innovations	-5110
▁transparent	-5111
▁arrangements	-5112
▁contribution	-5113
▁relationships	-5114
IP	-5115
RIS	-5116
ume	-5117
uty	-5118
arth	-5119
iers	-5120
▁awa	-5121
ained	-5122
icial	-5123
iling	-5124
▁Prot	-5125
▁nine	-5126
▁sort	-5127
▁tele	-5128
ailand	-5129
icious	-5130
▁newly	-5131
through	-5132
▁Change	-5133
▁Rights	-5134
▁defeat	-5135
▁losing	-5136
▁parent	-5137
▁express	-5138
▁annivers	-5139
▁downward	-5140
▁Countries	-5141
▁practical	-5142
▁artificial	-5143
▁extraordin	-5144
▁legitimate	-5145
▁rebalancing	-5146
ias	-5147
ife	-5148
iop	-5149
yal	-5150
ntil	-5151
orld	-5152
rees	-5153
ular	-5154
ables	-5155
▁Prog	-5156
▁Turk	-5157
▁cong	-5158
▁rail	-5159
▁sold	-5160
▁wake	-5161
growth	-5162
overed	-5163
▁2007,	-5164
▁micro	-5165
▁schem	-5166
▁smart	-5167
▁unity	-5168
archers	-5169
▁Strate	-5170
▁Unlike	-5171
▁ending	-5172
▁obstac	-5173
▁philos	-5174
▁profit	-5175
▁raises	-5176
building	-5177
currency	-5178
▁Iranian	-5179
▁Italian	-5180
▁happens	-5181
▁pointed	-5182
▁studies	-5183
▁Assembly	-5184
▁Colombia	-5185
▁Thailand	-5186
▁marginal	-5187
▁meetings	-5188
▁northern	-5189
▁vehicles	-5190
▁acknowled	-5191
▁proposals	-5192
▁dependence	-5193
▁mainstream	-5194
▁improvement	-5195
▁transportation	-5196
CP	-5197
bur	-5198
ini	-5199
ocu	-5200
▁1,	-5201
▁PA	-5202
fare	-5203
inct	-5204
▁Bet	-5205
▁Spe	-5206
▁sus	-5207
ffect	-5208
ommod	-5209
▁$100	-5210
▁brut	-5211
▁phen	-5212
driven	-5213
lected	-5214
▁apply	-5215
▁diagn	-5216
▁disag	-5217
▁phase	-5218
▁polar	-5219
▁revol	-5220
artment	-5221
▁Macron	-5222
▁calcul	-5223
▁closed	-5224
▁intent	-5225
▁pushed	-5226
▁series	-5227
▁tackle	-5228
▁useful	-5229
▁Nigeria	-5230
▁dispute	-5231
▁mistake	-5232
▁pursued	-5233
connected	-5234
including	-5235
▁Research	-5236
▁affected	-5237
▁interven	-5238
▁ordinary	-5239
▁accounted	-5240
▁aggregate	-5241
▁displaced	-5242
▁evolution	-5243
▁gradually	-5244
▁stimulate	-5245
▁transfers	-5246
▁reasonable	-5247
▁Cooperation	-5248
▁flexibility	-5249
▁journalists	-5250
▁researchers	-5251
▁participants	-5252
▁requirements	-5253
aj	-5254
ns	-5255
ipe	-5256
rip	-5257
ulf	-5258
eter	-5259
lish	-5260
rice	-5261
▁$1.	-5262
▁90%	-5263
▁ver	-5264
ellow	-5265
odies	-5266
▁Cuba	-5267
▁Hung	-5268
▁zone	-5269
estern	-5270
inding	-5271
ivered	-5272
▁Frank	-5273
▁Until	-5274
▁accur	-5275
▁aspir	-5276
▁toler	-5277
▁Angela	-5278
▁entail	-5279
▁friend	-5280
▁integr	-5281
▁paying	-5282
▁saying	-5283
▁sheets	-5284
ophistic	-5285
▁claimed	-5286
▁pushing	-5287
▁underst	-5288
▁warning	-5289
▁accepted	-5290
▁balanced	-5291
▁destabil	-5292
▁deterior	-5293
▁identify	-5294
▁mortgage	-5295
▁phenomen	-5296
▁regarded	-5297
▁ambitions	-5298
▁dominated	-5299
▁opponents	-5300
▁experiment	-5301
▁resilience	-5302
▁threatened	-5303
▁tightening	-5304
▁essentially	-5305
▁institution	-5306
▁constitution	-5307
▁communication	-5308
▁internationally	-5309
IB	-5310
me	-5311
rs	-5312
iti	-5313
▁$7	-5314
▁Ne	-5315
reak	-5316
rown	-5317
ylum	-5318
▁She	-5319
▁Wen	-5320
▁anc	-5321
bling	-5322
itect	-5323
itime	-5324
▁Four	-5325
▁cars	-5326
▁exam	-5327
▁gold	-5328
▁2000,	-5329
▁2015.	-5330
▁equip	-5331
▁escal	-5332
▁index	-5333
▁posed	-5334
develop	-5335
▁Ethiop	-5336
▁Street	-5337
▁Sweden	-5338
▁donors	-5339
▁prohib	-5340
▁punish	-5341
▁corrupt	-5342
▁exposed	-5343
▁gradual	-5344
▁imagine	-5345
▁realize	-5346
▁analysis	-5347
▁released	-5348
▁threaten	-5349
▁Represent	-5350
▁delivered	-5351
▁operating	-5352
▁statement	-5353
▁determined	-5354
▁generating	-5355
▁repression	-5356
▁stagnation	-5357
▁Furthermore	-5358
▁ideological	-5359
▁instruments	-5360
▁obligations	-5361
IA	-5362
TA	-5363
ih	-5364
ni	-5365
asc	-5366
bit	-5367
how	-5368
alib	-5369
▁McK	-5370
▁Nob	-5371
▁Why	-5372
▁sto	-5373
oning	-5374
▁Once	-5375
clical	-5376
itably	-5377
pected	-5378
▁Goals	-5379
▁holds	-5380
▁match	-5381
▁minds	-5382
▁older	-5383
▁reput	-5384
▁Robert	-5385
▁asylum	-5386
▁decide	-5387
▁divers	-5388
▁foster	-5389
▁weaken	-5390
ifically	-5391
ventions	-5392
▁English	-5393
▁autonom	-5394
▁creates	-5395
▁discipl	-5396
▁distort	-5397
▁fragile	-5398
▁renewed	-5399
▁victims	-5400
▁violent	-5401
▁accommod	-5402
▁investig	-5403
▁targeted	-5404
▁architect	-5405
▁employees	-5406
▁exporters	-5407
▁generated	-5408
▁ownership	-5409
▁sophistic	-5410
▁suggested	-5411
▁regardless	-5412
▁underlying	-5413
▁anniversary	-5414
▁consolidation	-5415
▁constitutional	-5416
DR	-5417
egu	-5418
ola	-5419
osy	-5420
oud	-5421
pan	-5422
rew	-5423
udd	-5424
▁4.	-5425
▁Kh	-5426
appe	-5427
coin	-5428
stan	-5429
▁25%	-5430
▁Any	-5431
▁Inf	-5432
▁Law	-5433
▁eru	-5434
ament	-5435
ashed	-5436
democ	-5437
ecess	-5438
style	-5439
▁born	-5440
▁cell	-5441
illenn	-5442
thirds	-5443
▁Libya	-5444
▁McKin	-5445
▁enlar	-5446
▁polls	-5447
▁uncon	-5448
ulating	-5449
▁Agency	-5450
▁attrib	-5451
▁reward	-5452
▁shifts	-5453
▁spirit	-5454
▁Brother	-5455
▁Hillary	-5456
▁compete	-5457
▁fulfill	-5458
▁illegal	-5459
▁inflows	-5460
▁keeping	-5461
▁usually	-5462
▁worried	-5463
▁elements	-5464
▁flexible	-5465
▁publicly	-5466
▁systemic	-5467
▁Southeast	-5468
▁predecess	-5469
▁promising	-5470
▁wellbeing	-5471
▁securities	-5472
▁threatening	-5473
▁experiencing	-5474
▁multinational	-5475
CE	-5476
tic	-5477
agen	-5478
cean	-5479
ingu	-5480
mans	-5481
moil	-5482
pret	-5483
pted	-5484
rete	-5485
unis	-5486
ware	-5487
▁Add	-5488
▁mus	-5489
▁sac	-5490
ibiot	-5491
ivate	-5492
rific	-5493
using	-5494
▁reck	-5495
ighter	-5496
▁Found	-5497
▁Leban	-5498
▁Never	-5499
▁PARIS	-5500
▁White	-5501
▁coast	-5502
▁ideal	-5503
▁react	-5504
cession	-5505
osystem	-5506
▁costly	-5507
▁crimes	-5508
▁father	-5509
▁incomp	-5510
▁Through	-5511
▁opposed	-5512
▁turmoil	-5513
▁McKinsey	-5514
▁concrete	-5515
▁pressing	-5516
▁reconcil	-5517
▁diversity	-5518
▁inclusion	-5519
▁provision	-5520
▁disappoint	-5521
▁proportion	-5522
▁purchasing	-5523
▁Nonetheless	-5524
▁coordinated	-5525
▁necessarily	-5526
▁improvements	-5527
ux	-5528
ani	-5529
iny	-5530
empl	-5531
▁Ben	-5532
▁Cop	-5533
▁hyd	-5534
claim	-5535
erous	-5536
▁Bill	-5537
▁Lead	-5538
▁chem	-5539
▁flaw	-5540
▁perm	-5541
crisis	-5542
▁2006,	-5543
▁girls	-5544
▁south	-5545
▁tough	-5546
▁Market	-5547
▁acting	-5548
▁actual	-5549
▁argues	-5550
▁aspect	-5551
▁define	-5552
▁fourth	-5553
▁ignore	-5554
▁overse	-5555
▁safegu	-5556
▁slowed	-5557
▁taxpay	-5558
▁Defense	-5559
▁Whether	-5560
▁bailout	-5561
▁collaps	-5562
▁mandate	-5563
▁nominal	-5564
▁privile	-5565
ressional	-5566
▁announce	-5567
▁criminal	-5568
▁dominant	-5569
▁intended	-5570
▁reliance	-5571
▁slightly	-5572
▁eliminate	-5573
▁atmosphere	-5574
▁attempting	-5575
▁negotiating	-5576
▁considerably	-5577
▁depreciation	-5578
▁manipulation	-5579
▁policymaking	-5580
▁simultaneously	-5581
CO	-5582
ES	-5583
OEs	-5584
gia	-5585
ket	-5586
rap	-5587
▁Ah	-5588
acco	-5589
bing	-5590
rant	-5591
▁Are	-5592
▁Mao	-5593
▁Rom	-5594
▁Sup	-5595
▁alt	-5596
▁bit	-5597
▁got	-5598
▁sch	-5599
oples	-5600
▁Five	-5601
▁Silk	-5602
▁drag	-5603
▁norm	-5604
anging	-5605
iances	-5606
icking	-5607
▁Blair	-5608
▁Nobel	-5609
▁advis	-5610
▁daily	-5611
▁gives	-5612
▁penal	-5613
▁plant	-5614
▁prose	-5615
▁seeks	-5616
▁votes	-5617
▁white	-5618
▁condem	-5619
▁depart	-5620
▁signal	-5621
▁Spanish	-5622
▁carried	-5623
▁eastern	-5624
▁ethical	-5625
▁finding	-5626
▁minimum	-5627
▁mission	-5628
▁imperial	-5629
▁managers	-5630
▁openness	-5631
▁revealed	-5632
▁supports	-5633
▁alongside	-5634
▁carefully	-5635
▁conducted	-5636
▁dictators	-5637
▁ecosystem	-5638
▁populists	-5639
▁seemingly	-5640
▁foreigners	-5641
▁presidents	-5642
▁challenging	-5643
▁constraints	-5644
▁parliamentary	-5645
6,	-5646
CA	-5647
ha	-5648
SEL	-5649
ett	-5650
hab	-5651
rig	-5652
▁27	-5653
▁7%	-5654
ahar	-5655
grad	-5656
rish	-5657
tion	-5658
▁Lab	-5659
▁Mor	-5660
▁Sun	-5661
▁esc	-5662
sight	-5663
▁City	-5664
▁High	-5665
▁Sino	-5666
▁fire	-5667
minent	-5668
vision	-5669
▁Tunis	-5670
▁helps	-5671
enhagen	-5672
ensions	-5673
▁Center	-5674
▁Recent	-5675
▁absorb	-5676
▁accord	-5677
▁barely	-5678
▁charge	-5679
▁combat	-5680
▁height	-5681
▁inspir	-5682
▁placed	-5683
▁prison	-5684
▁resort	-5685
▁uphold	-5686
▁chronic	-5687
▁comfort	-5688
▁fastest	-5689
▁species	-5690
▁Atlantic	-5691
▁Xiaoping	-5692
▁adequate	-5693
▁coverage	-5694
▁resulted	-5695
▁returned	-5696
▁Stability	-5697
▁equipment	-5698
▁favorable	-5699
▁narrative	-5700
▁workforce	-5701
▁Copenhagen	-5702
▁controvers	-5703
▁guarantees	-5704
▁maintained	-5705
▁breakthrough	-5706
▁fundamentally	-5707
▁representatives	-5708
ym	-5709
aza	-5710
duc	-5711
era	-5712
▁7.	-5713
▁IP	-5714
▁od	-5715
ador	-5716
atal	-5717
ivot	-5718
ompl	-5719
vard	-5720
▁191	-5721
▁500	-5722
▁Imp	-5723
▁Naz	-5724
▁cha	-5725
▁via	-5726
adays	-5727
inced	-5728
onial	-5729
▁ally	-5730
▁bomb	-5731
▁emot	-5732
▁iron	-5733
▁ment	-5734
▁pool	-5735
▁vill	-5736
▁wave	-5737
▁wors	-5738
health	-5739
▁2030.	-5740
▁Every	-5741
▁crypt	-5742
▁eager	-5743
▁facts	-5744
▁heard	-5745
▁satis	-5746
▁shale	-5747
▁steel	-5748
▁surge	-5749
▁arrest	-5750
▁bottom	-5751
▁extend	-5752
▁launch	-5753
▁talent	-5754
▁thanks	-5755
▁Harvard	-5756
▁Supreme	-5757
▁budgets	-5758
▁spectac	-5759
▁invested	-5760
▁severely	-5761
▁suddenly	-5762
▁confident	-5763
▁expertise	-5764
▁incentive	-5765
▁isolation	-5766
▁requiring	-5767
▁weakening	-5768
▁Foundation	-5769
▁foundation	-5770
▁impressive	-5771
▁indicators	-5772
▁subsequent	-5773
▁surprising	-5774
▁understood	-5775
▁explanation	-5776
▁Palestinians	-5777
▁appreciation	-5778
▁demonstrated	-5779
gr	-5780
bor	-5781
cor	-5782
emb	-5783
▁4%	-5784
SELS	-5785
▁Aff	-5786
▁Cle	-5787
▁dow	-5788
▁fal	-5789
▁hot	-5790
▁obt	-5791
▁tow	-5792
iking	-5793
uable	-5794
▁1970	-5795
▁AIDS	-5796
▁PBOC	-5797
▁alle	-5798
▁docu	-5799
▁ease	-5800
▁eyes	-5801
▁grid	-5802
USSELS	-5803
erving	-5804
lessly	-5805
otland	-5806
▁2013.	-5807
▁2014.	-5808
▁Hamas	-5809
▁newsp	-5810
▁risky	-5811
▁advice	-5812
▁backed	-5813
▁estate	-5814
▁except	-5815
▁harder	-5816
▁presum	-5817
▁provin	-5818
▁secret	-5819
▁shares	-5820
▁steady	-5821
▁strict	-5822
▁voting	-5823
▁waters	-5824
▁greatly	-5825
▁package	-5826
▁version	-5827
▁wealthy	-5828
▁bankrupt	-5829
▁mutually	-5830
▁projected	-5831
▁comparable	-5832
▁completely	-5833
▁concerning	-5834
▁emphasized	-5835
▁encouraged	-5836
▁frequently	-5837
▁supporters	-5838
▁Sustainable	-5839
▁respectively	-5840
▁successfully	-5841
▁extraordinary	-5842
?”	-5843
AV	-5844
HI	-5845
▁z	-5846
bul	-5847
eth	-5848
ius	-5849
▁5.	-5850
▁Em	-5851
agan	-5852
isan	-5853
oned	-5854
osis	-5855
resh	-5856
rine	-5857
▁Dut	-5858
▁Pan	-5859
▁Sud	-5860
▁fra	-5861
▁pie	-5862
ading	-5863
gered	-5864
▁Rich	-5865
▁blam	-5866
▁fate	-5867
▁wish	-5868
remier	-5869
▁apart	-5870
▁catch	-5871
▁downt	-5872
▁monop	-5873
▁recip	-5874
▁table	-5875
ospital	-5876
product	-5877
▁buying	-5878
▁caught	-5879
▁exclus	-5880
▁legacy	-5881
▁manner	-5882
function	-5883
▁However	-5884
▁Juncker	-5885
▁accompl	-5886
▁courage	-5887
▁showing	-5888
▁survive	-5889
▁traject	-5890
efficient	-5891
▁BRUSSELS	-5892
▁Scotland	-5893
▁antibiot	-5894
▁creative	-5895
▁declined	-5896
▁educated	-5897
▁estimate	-5898
▁minority	-5899
▁multiple	-5900
▁patterns	-5901
▁preserve	-5902
▁reliable	-5903
▁treaties	-5904
▁vaccines	-5905
▁Political	-5906
▁alliances	-5907
▁connected	-5908
▁expressed	-5909
▁presented	-5910
▁sentiment	-5911
▁threatens	-5912
▁conclusion	-5913
▁perception	-5914
▁terrorists	-5915
governmental	-5916
▁discussions	-5917
▁counterparts	-5918
▁characterized	-5919
▁interventions	-5920
▁communications	-5921
DI	-5922
new	-5923
que	-5924
she	-5925
ums	-5926
▁24	-5927
abwe	-5928
iest	-5929
lock	-5930
math	-5931
oted	-5932
ragm	-5933
uate	-5934
▁Sub	-5935
▁cul	-5936
▁tim	-5937
Sahar	-5938
agues	-5939
enced	-5940
▁Much	-5941
▁Shin	-5942
▁Zimb	-5943
▁dark	-5944
▁seas	-5945
▁uses	-5946
aliban	-5947
econom	-5948
ipping	-5949
reness	-5950
rights	-5951
▁2001,	-5952
▁acute	-5953
▁black	-5954
▁frust	-5955
▁north	-5956
▁parad	-5957
▁woman	-5958
Saharan	-5959
▁Labour	-5960
▁namely	-5961
▁opened	-5962
▁openly	-5963
▁oppose	-5964
▁perpet	-5965
▁rarely	-5966
▁review	-5967
▁strike	-5968
▁yields	-5969
idelines	-5970
reaching	-5971
▁Taliban	-5972
▁adverse	-5973
▁bolster	-5974
▁comment	-5975
▁empower	-5976
▁fueling	-5977
▁Zimbabwe	-5978
▁champion	-5979
▁imposing	-5980
▁aftermath	-5981
▁awareness	-5982
▁cooperate	-5983
▁deepening	-5984
▁discrimin	-5985
▁executive	-5986
▁Department	-5987
▁controlled	-5988
▁recognizes	-5989
▁struggling	-5990
▁demonstrate	-5991
▁manufacture	-5992
▁progressive	-5993
▁effectiveness	-5994
3.	-5995
6.	-5996
NP	-5997
ana	-5998
ley	-5999
mad	-6000
olf	-6001
ozy	-6002
▁6%	-6003
aunt	-6004
hink	-6005
pple	-6006
▁Ger	-6007
▁Mos	-6008
▁dim	-6009
▁sup	-6010
point	-6011
price	-6012
▁2004	-6013
▁Gulf	-6014
▁crop	-6015
▁enth	-6016
▁resc	-6017
holder	-6018
▁2010.	-6019
▁Among	-6020
▁crack	-6021
▁kinds	-6022
▁moves	-6023
▁skept	-6024
▁types	-6025
▁voice	-6026
▁watch	-6027
▁escape	-6028
▁parity	-6029
▁plenty	-6030
▁shadow	-6031
▁unders	-6032
▁Lebanon	-6033
▁Premier	-6034
▁command	-6035
▁contrad	-6036
▁enacted	-6037
▁exchang	-6038
▁pension	-6039
▁peoples	-6040
▁selling	-6041
▁witness	-6042
inflation	-6043
▁civilian	-6044
▁disorder	-6045
▁downturn	-6046
▁examples	-6047
▁exercise	-6048
▁focusing	-6049
▁maritime	-6050
▁moderate	-6051
▁urgently	-6052
▁weakened	-6053
▁borrowers	-6054
▁emergency	-6055
▁recommend	-6056
▁regarding	-6057
▁sensitive	-6058
▁surpluses	-6059
▁triggered	-6060
▁beneficial	-6061
▁trajectory	-6062
▁expenditure	-6063
▁expenditures	-6064
dig	-6065
iab	-6066
utr	-6067
▁MI	-6068
▁Os	-6069
▁je	-6070
aded	-6071
cost	-6072
osen	-6073
ston	-6074
what	-6075
▁hab	-6076
▁saw	-6077
▁slo	-6078
hered	-6079
▁Jean	-6080
▁died	-6081
▁prud	-6082
▁rout	-6083
▁trap	-6084
adjust	-6085
arkozy	-6086
invest	-6087
▁1970’	-6088
▁2020.	-6089
▁2030,	-6090
▁Group	-6091
▁absol	-6092
▁autoc	-6093
▁entit	-6094
▁fresh	-6095
▁poses	-6096
▁refer	-6097
▁trial	-6098
essions	-6099
largest	-6100
▁Malays	-6101
▁courts	-6102
▁divide	-6103
▁female	-6104
▁murder	-6105
▁notion	-6106
▁relief	-6107
levision	-6108
veraging	-6109
▁consult	-6110
▁joining	-6111
▁liberty	-6112
▁Northern	-6113
▁academic	-6114
▁decisive	-6115
▁overseas	-6116
▁proclaim	-6117
▁striking	-6118
▁upcoming	-6119
▁Christian	-6120
▁convinced	-6121
▁responded	-6122
▁stabilize	-6123
▁apparently	-6124
▁reinforced	-6125
▁consequence	-6126
▁devaluation	-6127
▁recognizing	-6128
▁concentrated	-6129
▁sophisticated	-6130
DB	-6131
EY	-6132
akh	-6133
ips	-6134
now	-6135
tax	-6136
▁TB	-6137
arak	-6138
lymp	-6139
prof	-6140
▁Far	-6141
▁die	-6142
▁swe	-6143
acing	-6144
eping	-6145
integ	-6146
isbon	-6147
known	-6148
opard	-6149
place	-6150
▁2005	-6151
▁Cont	-6152
▁HONG	-6153
▁KONG	-6154
▁Modi	-6155
▁tons	-6156
▁vice	-6157
▁1980’	-6158
▁Earth	-6159
▁Olymp	-6160
▁Power	-6161
▁chain	-6162
▁enjoy	-6163
▁logic	-6164
▁novel	-6165
▁pharm	-6166
▁ruled	-6167
▁waste	-6168
osition	-6169
ultural	-6170
▁Berlin	-6171
▁Church	-6172
▁Summit	-6173
▁allows	-6174
▁bigger	-6175
▁exclud	-6176
▁famous	-6177
▁served	-6178
▁symbol	-6179
▁transl	-6180
▁Sarkozy	-6181
▁alleged	-6182
▁applied	-6183
▁bubbles	-6184
▁decreas	-6185
▁disappe	-6186
▁painful	-6187
▁variety	-6188
▁Ethiopia	-6189
▁enhanced	-6190
▁founding	-6191
▁invasion	-6192
▁mounting	-6193
▁benefited	-6194
▁ourselves	-6195
▁reinforce	-6196
▁Conference	-6197
▁background	-6198
▁declaration	-6199
▁foundations	-6200
▁consistently	-6201
▁fundamentals	-6202
▁neighborhood	-6203
▁professional	-6204
▁transatlantic	-6205
ER	-6206
▁[	-6207
oor	-6208
▁Cy	-6209
▁Im	-6210
▁QE	-6211
▁Zh	-6212
anke	-6213
ilib	-6214
oked	-6215
otic	-6216
such	-6217
▁doz	-6218
▁lie	-6219
aceut	-6220
agger	-6221
▁AIIB	-6222
▁burn	-6223
▁cast	-6224
▁crow	-6225
▁fine	-6226
▁hurt	-6227
▁unit	-6228
▁vent	-6229
▁Crime	-6230
▁Inter	-6231
▁Peace	-6232
▁Times	-6233
▁arise	-6234
▁aside	-6235
▁backl	-6236
▁deleg	-6237
▁flood	-6238
▁image	-6239
▁overh	-6240
▁tests	-6241
▁broken	-6242
▁enthus	-6243
▁incumb	-6244
▁latter	-6245
▁richer	-6246
▁wisdom	-6247
▁Clearly	-6248
▁Islands	-6249
▁Turkish	-6250
▁channel	-6251
▁dealing	-6252
▁debates	-6253
▁enlarge	-6254
▁evident	-6255
▁feature	-6256
▁landing	-6257
▁lasting	-6258
▁operate	-6259
▁prepare	-6260
▁prolong	-6261
▁pursuit	-6262
▁reverse	-6263
▁surpass	-6264
aceutical	-6265
struction	-6266
▁discoura	-6267
▁properly	-6268
government	-6269
▁demanding	-6270
▁dominance	-6271
▁producing	-6272
▁shortfall	-6273
▁unwilling	-6274
▁affordable	-6275
▁assessment	-6276
▁colleagues	-6277
▁commission	-6278
▁complement	-6279
▁inevitably	-6280
▁negotiated	-6281
▁neighboring	-6282
▁constructive	-6283
no	-6284
oy	-6285
RID	-6286
cow	-6287
iox	-6288
lit	-6289
rue	-6290
ugg	-6291
une	-6292
urt	-6293
xic	-6294
adic	-6295
ocol	-6296
▁Den	-6297
▁lab	-6298
▁meg	-6299
▁ple	-6300
emics	-6301
erted	-6302
scape	-6303
utral	-6304
▁brid	-6305
▁insu	-6306
▁pick	-6307
▁pret	-6308
▁qual	-6309
▁send	-6310
▁symp	-6311
ashion	-6312
▁2008.	-6313
▁2017.	-6314
▁Board	-6315
▁Front	-6316
▁Roman	-6317
▁belie	-6318
▁crime	-6319
▁delib	-6320
▁entry	-6321
▁pragm	-6322
▁risen	-6323
mission	-6324
▁Lisbon	-6325
▁Spring	-6326
▁headed	-6327
▁marked	-6328
▁poorer	-6329
adjusted	-6330
▁Pacific	-6331
▁ancient	-6332
▁gaining	-6333
▁ignored	-6334
▁jeopard	-6335
▁machine	-6336
▁payment	-6337
▁possess	-6338
▁stopped	-6339
▁Islamist	-6340
▁anywhere	-6341
▁computer	-6342
▁cultures	-6343
▁dominate	-6344
▁hospital	-6345
▁measured	-6346
▁mitigate	-6347
▁mobilize	-6348
▁outright	-6349
▁persuade	-6350
▁reaction	-6351
▁recorded	-6352
▁underway	-6353
▁customers	-6354
▁initiated	-6355
▁interpret	-6356
▁introduce	-6357
▁involving	-6358
▁operation	-6359
▁predicted	-6360
▁responses	-6361
▁taxpayers	-6362
▁criticized	-6363
▁identified	-6364
▁minorities	-6365
▁repeatedly	-6366
▁convergence	-6367
▁engineering	-6368
▁alternatives	-6369
▁compensation	-6370
▁interconnected	-6371
);	-6372
IS	-6373
NA	-6374
zo	-6375
ami	-6376
bod	-6377
ebt	-6378
irm	-6379
oto	-6380
▁(1	-6381
▁CN	-6382
▁Cz	-6383
▁fo	-6384
face	-6385
lete	-6386
odes	-6387
rous	-6388
▁300	-6389
▁Bit	-6390
▁Ric	-6391
▁bra	-6392
ADRID	-6393
aster	-6394
enses	-6395
idden	-6396
illed	-6397
inger	-6398
itzer	-6399
riend	-6400
▁1960	-6401
▁2001	-6402
▁Balk	-6403
▁Each	-6404
▁Mich	-6405
▁None	-6406
▁epid	-6407
▁eval	-6408
▁magn	-6409
▁outf	-6410
▁puts	-6411
▁word	-6412
energy	-6413
ispens	-6414
ranean	-6415
▁2004,	-6416
▁Sudan	-6417
▁expos	-6418
▁gross	-6419
▁overt	-6420
▁roads	-6421
▁usual	-6422
society	-6423
theless	-6424
▁Moscow	-6425
▁Public	-6426
▁attend	-6427
▁degrad	-6428
▁flight	-6429
▁inside	-6430
▁propag	-6431
▁retire	-6432
▁reveal	-6433
▁satisf	-6434
interest	-6435
▁Already	-6436
▁Bitcoin	-6437
▁Capital	-6438
▁Hungary	-6439
▁convers	-6440
▁deposit	-6441
▁expense	-6442
▁foresee	-6443
▁grounds	-6444
▁proceed	-6445
▁refused	-6446
▁restric	-6447
▁undersc	-6448
▁Bernanke	-6449
▁Strategy	-6450
▁adopting	-6451
▁approved	-6452
▁engaging	-6453
▁limiting	-6454
▁machines	-6455
▁nowadays	-6456
▁replaced	-6457
▁sacrific	-6458
▁valuable	-6459
▁Brazilian	-6460
▁Democracy	-6461
▁component	-6462
▁happening	-6463
▁integrate	-6464
▁integrity	-6465
▁realistic	-6466
▁interested	-6467
▁phenomenon	-6468
▁reputation	-6469
▁responding	-6470
▁accountable	-6471
▁considering	-6472
▁contraction	-6473
▁enforcement	-6474
▁underpinned	-6475
▁contributing	-6476
EA	-6477
It	-6478
LA	-6479
WI	-6480
▁21	-6481
▁El	-6482
ELHI	-6483
owed	-6484
▁Big	-6485
▁Her	-6486
▁Mub	-6487
▁Nic	-6488
▁WTO	-6489
▁fil	-6490
▁mag	-6491
▁nom	-6492
ebted	-6493
igned	-6494
ollah	-6495
reens	-6496
▁Gaza	-6497
▁Hist	-6498
▁SDGs	-6499
▁Sand	-6500
▁gets	-6501
▁insp	-6502
▁knew	-6503
▁onto	-6504
▁unle	-6505
iaries	-6506
iously	-6507
itudes	-6508
ounded	-6509
stable	-6510
▁Assad	-6511
▁DELHI	-6512
▁aware	-6513
▁blood	-6514
▁honor	-6515
▁imply	-6516
▁manif	-6517
sharing	-6518
▁Reagan	-6519
▁bodies	-6520
▁brutal	-6521
▁leaves	-6522
▁rating	-6523
▁rulers	-6524
▁wonder	-6525
chnology	-6526
▁Tunisia	-6527
▁accused	-6528
▁arguing	-6529
▁assumed	-6530
▁missile	-6531
▁planned	-6532
▁treated	-6533
▁Russians	-6534
▁absolute	-6535
▁backlash	-6536
▁comparis	-6537
▁disagree	-6538
▁dynamics	-6539
▁failures	-6540
▁accession	-6541
▁condition	-6542
▁equitable	-6543
▁landscape	-6544
▁meaningful	-6545
▁statistics	-6546
▁enlargement	-6547
▁represented	-6548
▁dictatorship	-6549
▁inflationary	-6550
▁vulnerability	-6551
▁considerations	-6552
▁pharmaceutical	-6553
▁unconventional	-6554
90	-6555
EU	-6556
zz	-6557
aks	-6558
col	-6559
ole	-6560
▁8%	-6561
▁Bu	-6562
aker	-6563
fold	-6564
hand	-6565
ilem	-6566
mony	-6567
▁Aut	-6568
▁Out	-6569
▁Yes	-6570
▁neo	-6571
apers	-6572
break	-6573
inite	-6574
▁1930	-6575
▁Holl	-6576
▁ball	-6577
▁lift	-6578
▁outl	-6579
▁plum	-6580
▁pose	-6581
▁runs	-6582
▁shut	-6583
▁sole	-6584
▁tort	-6585
▁uphe	-6586
Brexit	-6587
iments	-6588
minded	-6589
ounced	-6590
▁2016.	-6591
▁2050,	-6592
▁Dutch	-6593
▁Three	-6594
▁hydro	-6595
▁plays	-6596
▁route	-6597
▁scand	-6598
▁Crimea	-6599
▁MADRID	-6600
▁basket	-6601
▁begins	-6602
▁dispar	-6603
▁eradic	-6604
▁harmon	-6605
▁retain	-6606
▁slowly	-6607
ominated	-6608
▁Mubarak	-6609
▁Richard	-6610
▁binding	-6611
▁citizen	-6612
▁intense	-6613
▁parents	-6614
▁someone	-6615
▁Chairman	-6616
▁appeared	-6617
▁complain	-6618
▁convince	-6619
▁distingu	-6620
▁famously	-6621
▁features	-6622
▁informal	-6623
▁numerous	-6624
▁occasion	-6625
▁underest	-6626
▁Community	-6627
▁advancing	-6628
▁governing	-6629
▁materials	-6630
▁organized	-6631
▁restoring	-6632
▁succeeded	-6633
▁discipline	-6634
▁television	-6635
▁university	-6636
▁influential	-6637
▁interdepend	-6638
▁involvement	-6639
▁liabilities	-6640
▁announcement	-6641
▁stakeholders	-6642
▁temperatures	-6643
▁confrontation	-6644
▁Infrastructure	-6645
Is	-6646
ec	-6647
KEL	-6648
cer	-6649
ein	-6650
oms	-6651
yan	-6652
ande	-6653
anks	-6654
berg	-6655
born	-6656
gers	-6657
laud	-6658
ocur	-6659
soft	-6660
usal	-6661
▁Dar	-6662
▁Sal	-6663
▁hub	-6664
▁lob	-6665
cking	-6666
ifies	-6667
nings	-6668
▁2018	-6669
▁Educ	-6670
▁Food	-6671
▁Free	-6672
▁loan	-6673
▁plun	-6674
▁trib	-6675
establ	-6676
orship	-6677
▁cohes	-6678
▁night	-6679
▁plaus	-6680
▁pound	-6681
▁thres	-6682
▁vigor	-6683
illance	-6684
▁BERKEL	-6685
▁advert	-6686
▁brings	-6687
▁island	-6688
▁proced	-6689
▁proven	-6690
▁revive	-6691
▁rooted	-6692
▁select	-6693
▁sexual	-6694
▁weapon	-6695
communic	-6696
▁Justice	-6697
▁Mediter	-6698
▁Switzer	-6699
▁Whereas	-6700
▁avoided	-6701
▁chances	-6702
▁missing	-6703
▁revival	-6704
▁shaping	-6705
▁tension	-6706
▁vaccine	-6707
▁Africans	-6708
▁adoption	-6709
▁coherent	-6710
▁damaging	-6711
▁demanded	-6712
▁democrat	-6713
▁division	-6714
▁finances	-6715
▁foremost	-6716
▁geograph	-6717
▁reversed	-6718
▁somewhat	-6719
▁competing	-6720
▁discussed	-6721
▁genuinely	-6722
▁initially	-6723
▁motivated	-6724
▁obviously	-6725
▁reporting	-6726
▁similarly	-6727
▁threshold	-6728
▁compelling	-6729
▁undermined	-6730
▁Switzerland	-6731
▁temperature	-6732
▁unification	-6733
▁Constitution	-6734
▁connectivity	-6735
▁insufficient	-6736
▁polarization	-6737
▁Mediterranean	-6738
As	-6739
▁‘	-6740
adv	-6741
bed	-6742
imp	-6743
lex	-6744
urd	-6745
▁Sm	-6746
alls	-6747
amed	-6748
anes	-6749
ateg	-6750
beit	-6751
body	-6752
cles	-6753
crip	-6754
irth	-6755
ixon	-6756
kers	-6757
▁Ann	-6758
▁Emp	-6759
▁Kaz	-6760
▁Lar	-6761
▁Wit	-6762
▁hed	-6763
▁rig	-6764
▁smo	-6765
▁vac	-6766
essim	-6767
inter	-6768
isher	-6769
▁Back	-6770
▁Conf	-6771
▁Jews	-6772
▁Peru	-6773
▁Tony	-6774
▁blow	-6775
▁didn	-6776
▁dign	-6777
▁felt	-6778
▁gaps	-6779
▁hero	-6780
istrib	-6781
tering	-6782
▁2012.	-6783
▁Nixon	-6784
▁abund	-6785
▁arbit	-6786
▁falls	-6787
▁seize	-6788
▁Nether	-6789
▁Norway	-6790
▁Office	-6791
▁Shinzo	-6792
▁cataly	-6793
▁doubts	-6794
▁driver	-6795
▁lately	-6796
▁refuse	-6797
▁scheme	-6798
▁traged	-6799
▁unrest	-6800
▁volume	-6801
▁volunt	-6802
ffective	-6803
ollowing	-6804
rational	-6805
▁Against	-6806
▁anxiety	-6807
▁closest	-6808
▁declare	-6809
▁profess	-6810
▁rightly	-6811
▁routine	-6812
▁stories	-6813
▁winning	-6814
▁written	-6815
▁BERKELEY	-6816
▁Business	-6817
▁Malaysia	-6818
▁attempts	-6819
▁attitude	-6820
▁autonomy	-6821
▁dynamism	-6822
▁embraced	-6823
▁financed	-6824
▁generous	-6825
▁investor	-6826
▁straight	-6827
▁Ukrainian	-6828
▁arguments	-6829
▁exchanges	-6830
▁prolonged	-6831
▁reluctant	-6832
▁residents	-6833
▁resilient	-6834
▁targeting	-6835
▁aggression	-6836
▁creativity	-6837
▁depression	-6838
▁expression	-6839
▁statements	-6840
▁Netherlands	-6841
▁acknowledge	-6842
▁antibiotics	-6843
▁bureaucracy	-6844
▁commodities	-6845
▁complicated	-6846
▁constrained	-6847
▁cooperative	-6848
▁problematic	-6849
▁acknowledged	-6850
▁architecture	-6851
AC	-6852
OS	-6853
alf	-6854
amb	-6855
cks	-6856
iam	-6857
rum	-6858
tor	-6859
▁Eb	-6860
▁€1	-6861
aret	-6862
ione	-6863
irty	-6864
oles	-6865
onds	-6866
sion	-6867
velt	-6868
▁Cor	-6869
▁Env	-6870
▁Hit	-6871
▁Inc	-6872
▁bid	-6873
▁seg	-6874
▁sho	-6875
▁sym	-6876
Japan	-6877
icism	-6878
skept	-6879
unger	-6880
▁Chen	-6881
▁Marx	-6882
▁SOEs	-6883
▁Wolf	-6884
▁abol	-6885
▁text	-6886
▁vary	-6887
ection	-6888
reform	-6889
▁2003,	-6890
▁Czech	-6891
▁Davos	-6892
▁Ebola	-6893
▁Initi	-6894
▁badly	-6895
▁categ	-6896
▁drawn	-6897
▁fails	-6898
▁navig	-6899
▁traff	-6900
▁write	-6901
osevelt	-6902
perform	-6903
▁Asians	-6904
▁Kazakh	-6905
▁fellow	-6906
▁forest	-6907
▁lowest	-6908
▁shaped	-6909
▁smooth	-6910
▁stocks	-6911
▁turbul	-6912
▁unfair	-6913
▁Austria	-6914
▁Georgia	-6915
▁Twitter	-6916
▁aspects	-6917
▁backing	-6918
▁methods	-6919
▁plummet	-6920
▁privacy	-6921
▁regular	-6922
ideration	-6923
▁actively	-6924
▁ambition	-6925
▁averaged	-6926
▁avoiding	-6927
▁distinct	-6928
▁extended	-6929
▁ideology	-6930
▁meantime	-6931
▁purchase	-6932
▁separate	-6933
▁steadily	-6934
corruption	-6935
ispensable	-6936
▁Consensus	-6937
▁activists	-6938
▁cryptocur	-6939
▁explained	-6940
▁forecasts	-6941
▁intention	-6942
▁resolving	-6943
▁automation	-6944
▁disruption	-6945
▁enterprise	-6946
▁executives	-6947
▁reductions	-6948
▁aspirations	-6949
▁competitors	-6950
▁experiences	-6951
▁legislative	-6952
▁supervision	-6953
▁transformed	-6954
▁Conservative	-6955
▁surveillance	-6956
70	-6957
BI	-6958
DA	-6959
hi	-6960
lu	-6961
LIN	-6962
aba	-6963
def	-6964
ham	-6965
rav	-6966
win	-6967
▁70	-6968
▁Ug	-6969
Russ	-6970
aval	-6971
coni	-6972
indu	-6973
made	-6974
pper	-6975
real	-6976
wind	-6977
▁Bas	-6978
▁Dra	-6979
▁Net	-6980
▁PRI	-6981
▁SDR	-6982
▁dur	-6983
▁gun	-6984
▁jur	-6985
▁tob	-6986
▁web	-6987
chain	-6988
ected	-6989
orate	-6990
orrow	-6991
ourse	-6992
reets	-6993
▁1997	-6994
▁Deal	-6995
▁Park	-6996
▁clin	-6997
▁dele	-6998
▁jump	-6999
▁note	-7000
▁reap	-7001
▁roll	-7002
ioxide	-7003
irable	-7004
▁2005,	-7005
▁2020,	-7006
▁Assoc	-7007
▁Gates	-7008
▁adult	-7009
▁dilem	-7010
▁harsh	-7011
▁insur	-7012
▁postp	-7013
▁ranks	-7014
respons	-7015
ressing	-7016
▁Berlus	-7017
▁Compan	-7018
▁Jewish	-7019
▁abuses	-7020
▁contem	-7021
▁deepen	-7022
▁distur	-7023
▁exempl	-7024
▁famili	-7025
▁remote	-7026
▁remove	-7027
▁Affairs	-7028
▁Denmark	-7029
▁Nuclear	-7030
▁Program	-7031
▁Special	-7032
▁destroy	-7033
▁element	-7034
▁feeling	-7035
▁outlook	-7036
▁pledged	-7037
▁pricing	-7038
▁skilled	-7039
▁streets	-7040
▁tobacco	-7041
illennium	-7042
▁2008-200	-7043
▁Alliance	-7044
▁Egyptian	-7045
▁Governor	-7046
▁amounted	-7047
▁analysts	-7048
▁believes	-7049
▁chemical	-7050
▁disinteg	-7051
▁exposure	-7052
▁indicate	-7053
▁inherent	-7054
▁lowering	-7055
▁outbreak	-7056
▁outflows	-7057
▁remember	-7058
democratic	-7059
investment	-7060
▁Following	-7061
▁Keynesian	-7062
▁Palestine	-7063
▁Roosevelt	-7064
▁attitudes	-7065
▁computers	-7066
▁concerted	-7067
▁fertility	-7068
▁preparing	-7069
▁prevented	-7070
▁safeguard	-7071
▁assumption	-7072
▁frameworks	-7073
▁optimistic	-7074
▁supposedly	-7075
▁comparative	-7076
▁importantly	-7077
▁reinforcing	-7078
▁speculative	-7079
▁Nevertheless	-7080
▁accelerating	-7081
▁applications	-7082
▁shareholders	-7083
▁protectionism	-7084
."	-7085
60	-7086
EC	-7087
OM	-7088
UN	-7089
iev	-7090
isd	-7091
tar	-7092
thy	-7093
▁23	-7094
▁Mu	-7095
atar	-7096
brid	-7097
cure	-7098
icon	-7099
imal	-7100
olas	-7101
rium	-7102
ught	-7103
▁45%	-7104
▁Abd	-7105
▁Air	-7106
▁Cur	-7107
▁Hol	-7108
▁Rel	-7109
▁Slo	-7110
▁Sri	-7111
▁Ten	-7112
▁bip	-7113
▁dys	-7114
▁fun	-7115
▁pet	-7116
▁tri	-7117
▁voc	-7118
atism	-7119
equal	-7120
exist	-7121
haust	-7122
iants	-7123
inent	-7124
istry	-7125
▁Vice	-7126
▁barg	-7127
▁grav	-7128
▁hear	-7129
▁pipe	-7130
▁pull	-7131
▁unex	-7132
▁wait	-7133
advant	-7134
alling	-7135
chmark	-7136
insula	-7137
rating	-7138
▁1930’	-7139
▁abuse	-7140
▁conce	-7141
▁crash	-7142
▁facto	-7143
▁giant	-7144
▁happy	-7145
▁homes	-7146
▁immun	-7147
▁liter	-7148
▁pione	-7149
▁rally	-7150
▁stark	-7151
▁stood	-7152
▁turns	-7153
ictions	-7154
▁Greens	-7155
▁Hitler	-7156
▁Uganda	-7157
▁advent	-7158
▁agency	-7159
▁endors	-7160
▁exists	-7161
▁invent	-7162
▁jurisd	-7163
▁pledge	-7164
▁plural	-7165
▁privat	-7166
▁upgrad	-7167
ortheast	-7168
▁aggress	-7169
▁closing	-7170
▁dangers	-7171
▁entered	-7172
▁erupted	-7173
▁exploit	-7174
▁fashion	-7175
▁follows	-7176
▁forcing	-7177
▁lenders	-7178
▁paralle	-7179
▁removed	-7180
▁talking	-7181
▁Whatever	-7182
▁constitu	-7183
▁holdings	-7184
▁intermed	-7185
▁original	-7186
▁prosecut	-7187
▁troubled	-7188
▁worrying	-7189
controlled	-7190
▁Education	-7191
▁assertive	-7192
▁confirmed	-7193
▁disasters	-7194
▁existence	-7195
▁strengths	-7196
▁strongest	-7197
▁Berlusconi	-7198
▁Convention	-7199
▁Initiative	-7200
▁Kazakhstan	-7201
▁allocation	-7202
▁ecological	-7203
▁explicitly	-7204
▁facilities	-7205
▁insecurity	-7206
▁reflecting	-7207
▁adjustments	-7208
▁dysfunction	-7209
▁existential	-7210
▁catastrophic	-7211
▁representing	-7212
▁consideration	-7213
▁protectionist	-7214
▁revolutionary	-7215
▁representative	-7216
▁understandable	-7217
40	-7218
80	-7219
HO	-7220
”:	-7221
ael	-7222
ghi	-7223
▁ES	-7224
▁TV	-7225
▁eg	-7226
ache	-7227
burg	-7228
izon	-7229
lder	-7230
oods	-7231
rank	-7232
ster	-7233
tail	-7234
tech	-7235
▁$2.	-7236
▁Ang	-7237
▁Che	-7238
▁ble	-7239
▁fit	-7240
▁mun	-7241
child	-7242
craft	-7243
night	-7244
ollar	-7245
urely	-7246
water	-7247
▁2030	-7248
▁Belt	-7249
▁Lank	-7250
▁acts	-7251
▁burd	-7252
▁cope	-7253
▁epis	-7254
▁fasc	-7255
▁love	-7256
▁sets	-7257
▁stor	-7258
▁tail	-7259
active	-7260
aution	-7261
friend	-7262
icated	-7263
mitted	-7264
▁Irish	-7265
▁Medic	-7266
▁ample	-7267
▁clout	-7268
▁forge	-7269
▁notes	-7270
iations	-7271
▁Cambod	-7272
▁Unless	-7273
▁adding	-7274
▁asking	-7275
▁embark	-7276
▁looked	-7277
▁passed	-7278
▁stated	-7279
utrition	-7280
▁Environ	-7281
▁Germans	-7282
▁capture	-7283
▁drivers	-7284
▁dropped	-7285
▁enemies	-7286
▁hegemon	-7287
▁mineral	-7288
▁stagger	-7289
▁technoc	-7290
▁unified	-7291
ependence	-7292
financial	-7293
▁Hollande	-7294
▁accurate	-7295
▁admitted	-7296
▁earnings	-7297
▁findings	-7298
▁produces	-7299
▁surround	-7300
▁taxation	-7301
▁ultimate	-7302
▁abandoned	-7303
▁advocates	-7304
▁attempted	-7305
▁communism	-7306
▁crackdown	-7307
▁disadvant	-7308
▁divisions	-7309
▁emphasize	-7310
▁indicated	-7311
▁intervene	-7312
▁obstacles	-7313
▁plausible	-7314
▁prominent	-7315
▁realities	-7316
▁redistrib	-7317
▁Industrial	-7318
▁bankruptcy	-7319
▁comparison	-7320
▁persistent	-7321
▁politician	-7322
▁propaganda	-7323
▁degradation	-7324
▁desperately	-7325
▁financially	-7326
▁requirement	-7327
▁difficulties	-7328
▁reconciliation	-7329
25	-7330
OK	-7331
cu	-7332
FOR	-7333
Ind	-7334
NCE	-7335
eda	-7336
imm	-7337
kov	-7338
raf	-7339
▁CD	-7340
▁ST	-7341
▁wo	-7342
agon	-7343
ales	-7344
azon	-7345
band	-7346
etic	-7347
even	-7348
iful	-7349
omed	-7350
onia	-7351
well	-7352
▁($1	-7353
▁hom	-7354
▁isn	-7355
▁kil	-7356
▁sem	-7357
▁tum	-7358
digit	-7359
edded	-7360
elect	-7361
erson	-7362
iabao	-7363
olars	-7364
tical	-7365
world	-7366
▁IPCC	-7367
▁amid	-7368
▁ends	-7369
▁halt	-7370
▁laid	-7371
▁meat	-7372
▁outs	-7373
▁pict	-7374
▁ster	-7375
▁wild	-7376
NCETON	-7377
accept	-7378
icipal	-7379
lights	-7380
umping	-7381
▁Index	-7382
▁James	-7383
▁Ocean	-7384
▁actor	-7385
▁anger	-7386
▁brain	-7387
▁draft	-7388
▁false	-7389
▁finds	-7390
▁forth	-7391
▁haven	-7392
▁input	-7393
▁print	-7394
▁sites	-7395
aunting	-7396
capital	-7397
▁BERLIN	-7398
▁Draghi	-7399
▁Fourth	-7400
▁Jiabao	-7401
▁Review	-7402
▁School	-7403
▁Within	-7404
▁blamed	-7405
▁career	-7406
▁disarm	-7407
▁fairly	-7408
▁forget	-7409
▁formed	-7410
▁marria	-7411
▁poised	-7412
▁Finance	-7413
▁Francis	-7414
▁careful	-7415
▁customs	-7416
▁deserve	-7417
▁focuses	-7418
▁killing	-7419
▁nowhere	-7420
▁patient	-7421
▁shifted	-7422
▁younger	-7423
▁balances	-7424
▁carrying	-7425
▁claiming	-7426
▁cohesion	-7427
▁conclude	-7428
▁constant	-7429
▁disputed	-7430
▁doctrine	-7431
▁familiar	-7432
▁implicit	-7433
▁manifest	-7434
▁maximize	-7435
▁quarters	-7436
▁resolved	-7437
▁sensible	-7438
▁speaking	-7439
▁PRINCETON	-7440
▁communist	-7441
▁extremism	-7442
▁shortages	-7443
▁successor	-7444
▁Developing	-7445
▁altogether	-7446
▁challenged	-7447
▁accordingly	-7448
▁expansionary	-7449
▁interference	-7450
▁introduction	-7451
▁sufficiently	-7452
▁controversial	-7453
▁indispensable	-7454
▁proliferation	-7455
▁administrative	-7456
-7	-7457
CT	-7458
fe	-7459
xy	-7460
yo	-7461
Ass	-7462
ago	-7463
anz	-7464
ked	-7465
ois	-7466
pot	-7467
▁28	-7468
▁8.	-7469
▁Lo	-7470
▁Qu	-7471
-199	-7472
AVEN	-7473
athy	-7474
educ	-7475
ille	-7476
lets	-7477
odox	-7478
unch	-7479
uras	-7480
▁35%	-7481
▁CCP	-7482
▁Cup	-7483
▁Jim	-7484
▁Lee	-7485
▁NGO	-7486
▁Ren	-7487
▁Ult	-7488
▁cop	-7489
▁map	-7490
▁yen	-7491
efore	-7492
egoti	-7493
grade	-7494
hetic	-7495
itate	-7496
shore	-7497
uates	-7498
▁Fran	-7499
▁Pact	-7500
▁belt	-7501
▁cens	-7502
▁deny	-7503
▁feas	-7504
▁flee	-7505
▁heat	-7506
▁intr	-7507
▁mism	-7508
▁star	-7509
▁tech	-7510
necess	-7511
olitan	-7512
ptions	-7513
▁2009.	-7514
▁HAVEN	-7515
▁Mario	-7516
▁chaos	-7517
▁defin	-7518
▁fluct	-7519
▁grows	-7520
▁insol	-7521
▁pride	-7522
▁seats	-7523
▁staff	-7524
▁toxic	-7525
▁train	-7526
▁virus	-7527
irector	-7528
▁Corpor	-7529
▁Reform	-7530
▁albeit	-7531
▁assist	-7532
▁chosen	-7533
▁empire	-7534
▁fields	-7535
▁mother	-7536
▁overth	-7537
▁pessim	-7538
▁ratios	-7539
▁regist	-7540
▁restra	-7541
▁settle	-7542
▁slogan	-7543
▁suspic	-7544
▁thrive	-7545
▁triump	-7546
▁upward	-7547
▁100,000	-7548
▁Johnson	-7549
▁Leaders	-7550
▁dismiss	-7551
▁doubled	-7552
▁forests	-7553
▁granted	-7554
▁immense	-7555
▁islands	-7556
▁looming	-7557
▁malaria	-7558
▁richest	-7559
▁signals	-7560
▁torture	-7561
▁tragedy	-7562
ronically	-7563
▁colonial	-7564
▁cyclical	-7565
▁employed	-7566
▁explains	-7567
▁implying	-7568
▁incorpor	-7569
▁observed	-7570
▁overlook	-7571
▁reminder	-7572
▁Churchill	-7573
▁Greenspan	-7574
▁Recession	-7575
▁benchmark	-7576
▁collapsed	-7577
▁desperate	-7578
▁fostering	-7579
▁municipal	-7580
▁naturally	-7581
▁philosoph	-7582
▁protected	-7583
iodiversity	-7584
▁constitute	-7585
▁guaranteed	-7586
▁highlights	-7587
▁intentions	-7588
▁Association	-7589
▁eliminating	-7590
▁inefficient	-7591
▁contemporary	-7592
▁determination	-7593
BC	-7594
ko	-7595
WII	-7596
afi	-7597
cel	-7598
osn	-7599
ulg	-7600
▁9.	-7601
rand	-7602
rors	-7603
sing	-7604
uber	-7605
▁$10	-7606
▁$3.	-7607
▁75%	-7608
▁Hen	-7609
▁Let	-7610
▁Moh	-7611
▁Wil	-7612
▁You	-7613
▁aug	-7614
▁cab	-7615
▁tap	-7616
▁twe	-7617
front	-7618
ishes	-7619
merce	-7620
ophob	-7621
prime	-7622
ranch	-7623
▁Bash	-7624
▁Sach	-7625
▁Sant	-7626
▁duty	-7627
▁pays	-7628
▁sake	-7629
▁scar	-7630
▁teac	-7631
▁trem	-7632
▁unus	-7633
German	-7634
anding	-7635
arming	-7636
ervice	-7637
iating	-7638
icians	-7639
▁Catal	-7640
▁Civil	-7641
▁Lanka	-7642
▁Sunni	-7643
▁annex	-7644
▁birth	-7645
▁donor	-7646
▁embar	-7647
▁guard	-7648
▁hoped	-7649
▁indef	-7650
▁inequ	-7651
▁lacks	-7652
▁lived	-7653
▁loyal	-7654
▁repay	-7655
▁sympt	-7656
▁tasks	-7657
▁ultra	-7658
General	-7659
content	-7660
initely	-7661
lihoods	-7662
rategic	-7663
▁couple	-7664
▁fisher	-7665
▁hunger	-7666
▁inflic	-7667
▁memory	-7668
▁relies	-7669
▁resent	-7670
▁soared	-7671
▁spring	-7672
friendly	-7673
ilibrium	-7674
▁acquire	-7675
▁charges	-7676
▁cheaper	-7677
▁devoted	-7678
▁dignity	-7679
▁evolved	-7680
▁exhaust	-7681
▁harness	-7682
▁linking	-7683
▁neutral	-7684
▁picture	-7685
▁release	-7686
▁request	-7687
▁retreat	-7688
▁tactics	-7689
▁Director	-7690
▁advocate	-7691
▁comprise	-7692
▁generals	-7693
▁governed	-7694
▁indebted	-7695
▁informed	-7696
▁insisted	-7697
▁linkages	-7698
▁mainland	-7699
▁monopoly	-7700
▁predomin	-7701
▁superior	-7702
industrial	-7703
▁accepting	-7704
▁addresses	-7705
▁affecting	-7706
▁extensive	-7707
▁followers	-7708
▁healthier	-7709
▁incumbent	-7710
▁secondary	-7711
▁capitalist	-7712
▁extremists	-7713
▁instrument	-7714
▁prevailing	-7715
▁suggesting	-7716
▁accelerated	-7717
▁achievement	-7718
▁anticipated	-7719
▁confronting	-7720
▁stabilizing	-7721
▁achievements	-7722
▁civilization	-7723
▁collectively	-7724
▁deflationary	-7725
▁congressional	-7726
▁destabilizing	-7727
▁discrimination	-7728
ny	-7729
sl	-7730
tw	-7731
án	-7732
▁&	-7733
eff	-7734
oon	-7735
▁Ha	-7736
▁Op	-7737
aeda	-7738
ford	-7739
orsi	-7740
rase	-7741
ruit	-7742
▁1.5	-7743
▁192	-7744
▁Few	-7745
▁San	-7746
▁Som	-7747
▁TPP	-7748
▁Vik	-7749
▁bio	-7750
▁dub	-7751
▁gam	-7752
▁glo	-7753
▁ham	-7754
▁pra	-7755
▁pul	-7756
▁raw	-7757
▁son	-7758
Assad	-7759
icing	-7760
ivals	-7761
ivery	-7762
ordan	-7763
roads	-7764
under	-7765
▁2003	-7766
▁Bosn	-7767
▁Jose	-7768
▁Stud	-7769
▁True	-7770
▁code	-7771
▁flag	-7772
▁forg	-7773
▁indu	-7774
▁quot	-7775
▁sees	-7776
▁suit	-7777
arians	-7778
manuel	-7779
▁Chief	-7780
▁Kyoto	-7781
▁Morsi	-7782
▁Qatar	-7783
▁Sachs	-7784
▁books	-7785
▁cells	-7786
▁elder	-7787
▁moder	-7788
Chinese	-7789
ounding	-7790
private	-7791
ructive	-7792
▁Common	-7793
▁Viktor	-7794
▁advers	-7795
▁anemic	-7796
▁detain	-7797
▁firmly	-7798
▁letter	-7799
▁lifest	-7800
▁lifted	-7801
▁sphere	-7802
▁versus	-7803
▁Neither	-7804
▁Senator	-7805
▁combine	-7806
▁doctors	-7807
▁pillars	-7808
▁ranging	-7809
▁rebuild	-7810
▁visited	-7811
▁Together	-7812
▁arguably	-7813
▁assuming	-7814
▁audience	-7815
▁criteria	-7816
▁entering	-7817
▁feasible	-7818
▁governor	-7819
▁hegemony	-7820
▁indirect	-7821
▁socially	-7822
▁software	-7823
▁volatile	-7824
▁buildings	-7825
▁decentral	-7826
▁departure	-7827
▁imbalance	-7828
▁indicates	-7829
▁promotion	-7830
▁receiving	-7831
▁rejection	-7832
▁shrinking	-7833
development	-7834
▁Millennium	-7835
▁Ultimately	-7836
▁adequately	-7837
▁diminished	-7838
▁disastrous	-7839
▁discovered	-7840
▁likelihood	-7841
▁peripheral	-7842
▁weaknesses	-7843
▁Brotherhood	-7844
▁centralized	-7845
▁connections	-7846
▁consolidate	-7847
▁predecessor	-7848
▁revolutions	-7849
▁spectacular	-7850
▁transmission	-7851
▁manufacturers	-7852
▁traditionally	-7853
va	-7854
zb	-7855
zh	-7856
asp	-7857
lor	-7858
sur	-7859
AIDS	-7860
Year	-7861
arus	-7862
cher	-7863
iary	-7864
mers	-7865
need	-7866
okyo	-7867
resa	-7868
▁Day	-7869
▁Par	-7870
▁civ	-7871
▁dog	-7872
▁haz	-7873
▁ran	-7874
comed	-7875
ibaba	-7876
ouris	-7877
sheet	-7878
speed	-7879
usive	-7880
▁1950	-7881
▁Char	-7882
▁Decl	-7883
▁Good	-7884
▁Krug	-7885
▁Nazi	-7886
▁Year	-7887
▁cart	-7888
▁date	-7889
▁deem	-7890
▁echo	-7891
▁judg	-7892
▁mood	-7893
▁spot	-7894
▁stun	-7895
▁wall	-7896
ailing	-7897
racted	-7898
redict	-7899
▁2007.	-7900
▁Macri	-7901
▁Tokyo	-7902
▁Where	-7903
▁alien	-7904
▁cliff	-7905
▁consc	-7906
▁drove	-7907
▁enemy	-7908
▁fifth	-7909
▁fraud	-7910
▁merit	-7911
▁pivot	-7912
▁reaff	-7913
▁robot	-7914
▁saved	-7915
▁simpl	-7916
rations	-7917
zbollah	-7918
▁10,000	-7919
▁Before	-7920
▁Former	-7921
▁Jordan	-7922
▁Report	-7923
▁freely	-7924
▁inject	-7925
▁paraly	-7926
▁regain	-7927
▁relent	-7928
capacity	-7929
ceptions	-7930
quarters	-7931
▁Belarus	-7932
▁Krugman	-7933
▁Michael	-7934
▁Theresa	-7935
▁affects	-7936
▁brother	-7937
▁corresp	-7938
▁curtail	-7939
▁details	-7940
▁devices	-7941
▁enjoyed	-7942
▁expects	-7943
▁implied	-7944
▁refusal	-7945
▁typical	-7946
▁waiting	-7947
▁Cambodia	-7948
▁chairman	-7949
▁channels	-7950
▁daunting	-7951
▁equipped	-7952
▁frontier	-7953
▁infected	-7954
▁medicine	-7955
▁missiles	-7956
▁producer	-7957
▁realized	-7958
▁securing	-7959
▁unnecess	-7960
▁welcomed	-7961
▁appealing	-7962
▁childhood	-7963
▁embracing	-7964
▁enhancing	-7965
▁gathering	-7966
▁mortgages	-7967
▁newspaper	-7968
▁oversight	-7969
▁proposing	-7970
▁provinces	-7971
▁secretary	-7972
▁successes	-7973
▁upgrading	-7974
denominated	-7975
▁Government	-7976
▁accomplish	-7977
▁benefiting	-7978
▁boundaries	-7979
▁fragmented	-7980
▁globalized	-7981
▁guidelines	-7982
▁processing	-7983
▁provisions	-7984
▁staggering	-7985
▁arrangement	-7986
▁catastrophe	-7987
▁containment	-7988
▁interaction	-7989
▁nonetheless	-7990
▁predictable	-7991
▁transaction	-7992
▁Policymakers	-7993
▁biodiversity	-7994
▁bureaucratic	-7995
▁facilitating	-7996
▁telecommunic	-7997
▁stabilization	-7998
▁strategically	-7999
Af	-8000
Ch	-8001
RC	-8002
Wh	-8003
sm	-8004
▁,	-8005
aug	-8006
cup	-8007
emy	-8008
fol	-8009
iro	-8010
ses	-8011
upp	-8012
▁22	-8013
▁26	-8014
▁35	-8015
▁65	-8016
▁AM	-8017
▁Ed	-8018
bean	-8019
cend	-8020
char	-8021
ding	-8022
fund	-8023
left	-8024
orse	-8025
outs	-8026
ruck	-8027
▁$50	-8028
▁Del	-8029
▁Had	-8030
▁Rec	-8031
▁eye	-8032
▁tom	-8033
Claud	-8034
added	-8035
ashes	-8036
atter	-8037
ceans	-8038
itage	-8039
opher	-8040
owing	-8041
redit	-8042
start	-8043
▁Acad	-8044
▁Gold	-8045
▁coun	-8046
▁curb	-8047
▁lobb	-8048
▁melt	-8049
▁pact	-8050
▁seat	-8051
▁seed	-8052
▁warm	-8053
▁wins	-8054
▁wise	-8055
Claude	-8056
backed	-8057
idance	-8058
iteers	-8059
ocking	-8060
owners	-8061
uggish	-8062
ureate	-8063
valued	-8064
▁Alger	-8065
▁Franç	-8066
▁Green	-8067
▁Somal	-8068
▁chair	-8069
▁climb	-8070
▁gases	-8071
▁hyper	-8072
▁incre	-8073
▁inher	-8074
▁intra	-8075
▁roles	-8076
▁spill	-8077
▁squee	-8078
▁trick	-8079
▁zones	-8080
comings	-8081
ilitary	-8082
▁Amazon	-8083
▁Having	-8084
▁Marine	-8085
▁approx	-8086
▁barrel	-8087
▁belong	-8088
▁bloody	-8089
▁corner	-8090
▁fortun	-8091
▁giants	-8092
▁resign	-8093
▁scarce	-8094
▁stakes	-8095
▁unions	-8096
arations	-8097
election	-8098
▁Between	-8099
▁Charter	-8100
▁Economy	-8101
▁breakup	-8102
▁classes	-8103
▁compact	-8104
▁convert	-8105
▁damaged	-8106
▁degrees	-8107
▁elderly	-8108
▁justify	-8109
▁portfol	-8110
▁substit	-8111
▁warfare	-8112
istically	-8113
rexiteers	-8114
▁Franklin	-8115
▁accident	-8116
▁dividend	-8117
▁embedded	-8118
▁imported	-8119
▁interact	-8120
▁marriage	-8121
▁overhaul	-8122
▁province	-8123
▁stemming	-8124
▁unaccept	-8125
▁widening	-8126
▁attracted	-8127
▁committee	-8128
▁destroyed	-8129
▁diplomats	-8130
▁inability	-8131
▁maintains	-8132
▁pragmatic	-8133
▁premature	-8134
▁reforming	-8135
▁confronted	-8136
▁electorate	-8137
▁impression	-8138
▁prevention	-8139
▁punishment	-8140
▁reluctance	-8141
▁renewables	-8142
▁undermines	-8143
▁violations	-8144
▁accumulated	-8145
▁assumptions	-8146
▁compromises	-8147
▁dangerously	-8148
▁disarmament	-8149
▁distortions	-8150
▁facilitated	-8151
▁functioning	-8152
▁introducing	-8153
▁livelihoods	-8154
▁operational	-8155
▁accumulation	-8156
▁shortcomings	-8157
▁significance	-8158
▁specifically	-8159
▁surprisingly	-8160
▁concentration	-8161
▁professionals	-8162
▁Representative	-8163
▁environmentally	-8164
-3	-8165
AP	-8166
BA	-8167
EM	-8168
If	-8169
Th	-8170
ky	-8171
”)	-8172
5%.	-8173
500	-8174
800	-8175
aku	-8176
any	-8177
gor	-8178
ica	-8179
mas	-8180
nel	-8181
uff	-8182
umn	-8183
vin	-8184
▁Gh	-8185
aces	-8186
amin	-8187
anim	-8188
ball	-8189
hard	-8190
high	-8191
nedy	-8192
oler	-8193
rect	-8194
uity	-8195
▁Ban	-8196
▁FDI	-8197
▁Mah	-8198
▁hes	-8199
World	-8200
ander	-8201
ester	-8202
eting	-8203
fifth	-8204
oldov	-8205
vency	-8206
vered	-8207
▁Coal	-8208
▁Mart	-8209
▁Real	-8210
▁Spec	-8211
▁Tian	-8212
▁boss	-8213
▁brib	-8214
▁diet	-8215
▁door	-8216
▁heed	-8217
▁inex	-8218
▁mira	-8219
▁terr	-8220
▁toug	-8221
iverse	-8222
thodox	-8223
uction	-8224
▁Panel	-8225
▁Popul	-8226
▁Women	-8227
▁acted	-8228
▁brink	-8229
▁broke	-8230
▁check	-8231
▁civic	-8232
▁dereg	-8233
▁grave	-8234
▁hedge	-8235
▁humil	-8236
▁midst	-8237
▁ports	-8238
▁tells	-8239
▁valid	-8240
economy	-8241
ulative	-8242
version	-8243
▁Author	-8244
▁Franco	-8245
▁Moldov	-8246
▁Others	-8247
▁agents	-8248
▁circle	-8249
▁contag	-8250
▁honest	-8251
▁permit	-8252
▁pillar	-8253
▁poorly	-8254
▁racial	-8255
▁stream	-8256
▁struck	-8257
▁voices	-8258
cription	-8259
▁Alibaba	-8260
▁Banking	-8261
▁Freedom	-8262
▁Kennedy	-8263
▁Project	-8264
▁Sanders	-8265
▁animals	-8266
▁assault	-8267
▁cabinet	-8268
▁ceiling	-8269
▁classic	-8270
▁dilemma	-8271
▁dioxide	-8272
▁earthqu	-8273
▁enables	-8274
▁exceeds	-8275
▁periods	-8276
▁spurred	-8277
▁suspect	-8278
mentation	-8279
roportion	-8280
▁François	-8281
▁approval	-8282
▁clearing	-8283
▁directed	-8284
▁director	-8285
▁endorsed	-8286
▁equities	-8287
▁freedoms	-8288
▁guidance	-8289
▁insights	-8290
▁offshore	-8291
▁removing	-8292
▁scholars	-8293
▁tackling	-8294
▁teachers	-8295
▁tomorrow	-8296
▁Argentine	-8297
▁Euroskept	-8298
▁Hezbollah	-8299
▁Brexiteers	-8300
▁Economists	-8301
▁adaptation	-8302
▁appreciate	-8303
▁components	-8304
▁discontent	-8305
▁ecosystems	-8306
▁irrational	-8307
▁officially	-8308
▁popularity	-8309
▁situations	-8310
▁traditions	-8311
▁triggering	-8312
▁Declaration	-8313
▁approaching	-8314
▁continental	-8315
▁equilibrium	-8316
▁exacerbated	-8317
▁highlighted	-8318
▁aggressively	-8319
▁deleveraging	-8320
▁transnational	-8321
▁Constitutional	-8322
▁disintegration	-8323
▁Representatives	-8324
▁recommendations	-8325
,"	-8326
SA	-8327
UL	-8328
ua	-8329
▁£	-8330
TIP	-8331
osm	-8332
sen	-8333
ups	-8334
vey	-8335
zed	-8336
▁80	-8337
▁Bh	-8338
▁CP	-8339
▁Rw	-8340
emer	-8341
hors	-8342
iced	-8343
ison	-8344
rill	-8345
▁11,	-8346
▁Pet	-8347
▁Squ	-8348
▁Xin	-8349
▁Zed	-8350
▁cas	-8351
▁hat	-8352
▁liv	-8353
▁lux	-8354
▁ost	-8355
▁rac	-8356
▁vib	-8357
aling	-8358
alley	-8359
dated	-8360
enous	-8361
fired	-8362
henko	-8363
inery	-8364
loyed	-8365
▁Near	-8366
▁card	-8367
▁dams	-8368
▁erod	-8369
▁kick	-8370
▁myth	-8371
▁perv	-8372
▁rent	-8373
▁subt	-8374
▁veto	-8375
▁vide	-8376
▁wary	-8377
atible	-8378
gorith	-8379
iciary	-8380
needed	-8381
▁1997,	-8382
▁2005.	-8383
▁2011.	-8384
▁Ahmad	-8385
▁Chair	-8386
▁Eurob	-8387
▁Stock	-8388
▁accus	-8389
▁alarm	-8390
▁alleg	-8391
▁boast	-8392
▁cards	-8393
▁coinc	-8394
▁crops	-8395
▁depth	-8396
▁enfor	-8397
▁escap	-8398
▁inhab	-8399
▁patri	-8400
▁piece	-8401
▁resur	-8402
▁sheer	-8403
▁sight	-8404
▁style	-8405
▁throw	-8406
▁trump	-8407
forward	-8408
inction	-8409
reating	-8410
▁Across	-8411
▁Bashar	-8412
▁Polish	-8413
▁Santos	-8414
▁adults	-8415
▁animal	-8416
▁dispos	-8417
▁dozens	-8418
▁inward	-8419
▁judges	-8420
▁metric	-8421
▁obtain	-8422
▁oceans	-8423
▁prompt	-8424
▁relied	-8425
▁seeing	-8426
▁serves	-8427
▁sooner	-8428
▁thinks	-8429
▁vested	-8430
balanced	-8431
▁article	-8432
▁contest	-8433
▁convinc	-8434
▁display	-8435
▁engines	-8436
▁entails	-8437
▁farming	-8438
▁gravity	-8439
▁legally	-8440
▁neglect	-8441
▁paradox	-8442
▁relying	-8443
▁scandal	-8444
▁serving	-8445
▁smoking	-8446
▁somehow	-8447
▁telling	-8448
▁testing	-8449
▁triumph	-8450
▁vehicle	-8451
▁venture	-8452
umulative	-8453
▁Olympics	-8454
▁declines	-8455
▁delivery	-8456
▁downside	-8457
▁integral	-8458
▁ministry	-8459
▁obstacle	-8460
▁optimism	-8461
▁pensions	-8462
▁promoted	-8463
▁purposes	-8464
▁reckless	-8465
▁stressed	-8466
▁universe	-8467
▁unstable	-8468
▁Islamists	-8469
▁appointed	-8470
▁declaring	-8471
▁dimension	-8472
▁discovery	-8473
▁graduates	-8474
▁headlines	-8475
▁preferred	-8476
▁recovered	-8477
▁regularly	-8478
▁Throughout	-8479
▁acceptance	-8480
▁comprising	-8481
▁delivering	-8482
▁exacerbate	-8483
▁expectancy	-8484
▁identities	-8485
▁irrelevant	-8486
▁obligation	-8487
▁occupation	-8488
▁preserving	-8489
▁presumably	-8490
▁retirement	-8491
▁diminishing	-8492
▁predictions	-8493
▁restructure	-8494
▁entrepreneur	-8495
▁breakthroughs	-8496
▁disproportion	-8497
▁interdependence	-8498
▁vulnerabilities	-8499
AG	-8500
BT	-8501
GI	-8502
In	-8503
UR	-8504
YO	-8505
ek	-8506
5%,	-8507
iol	-8508
lav	-8509
roc	-8510
who	-8511
▁9%	-8512
▁Ki	-8513
FORD	-8514
OKYO	-8515
iasm	-8516
ihad	-8517
izer	-8518
kaku	-8519
moon	-8520
prom	-8521
uled	-8522
▁30-	-8523
▁BoE	-8524
▁Bol	-8525
▁Dig	-8526
▁Exp	-8527
▁Jud	-8528
▁Mad	-8529
▁Mil	-8530
▁Ref	-8531
▁Sam	-8532
▁Tim	-8533
▁bab	-8534
▁fan	-8535
▁gar	-8536
▁ing	-8537
▁scr	-8538
▁yes	-8539
asant	-8540
asive	-8541
astic	-8542
borne	-8543
erved	-8544
human	-8545
icted	-8546
liers	-8547
occup	-8548
print	-8549
stein	-8550
uated	-8551
value	-8552
vedev	-8553
▁2002	-8554
▁Bret	-8555
▁Pers	-8556
▁Shia	-8557
▁WWII	-8558
▁calm	-8559
▁fill	-8560
▁keen	-8561
▁mega	-8562
▁odds	-8563
▁pron	-8564
▁ramp	-8565
▁site	-8566
▁spok	-8567
▁suic	-8568
▁tiny	-8569
ibbean	-8570
taking	-8571
ularly	-8572
▁2001.	-8573
▁Apple	-8574
▁Euras	-8575
▁Fried	-8576
▁Scott	-8577
▁Somet	-8578
▁Swiss	-8579
▁TOKYO	-8580
▁Water	-8581
▁admit	-8582
▁clash	-8583
▁deriv	-8584
▁euros	-8585
▁grant	-8586
▁marks	-8587
▁ought	-8588
▁peril	-8589
▁plain	-8590
▁prope	-8591
▁remed	-8592
▁rigid	-8593
▁socio	-8594
▁teams	-8595
▁waves	-8596
assador	-8597
athered	-8598
endment	-8599
ervices	-8600
levance	-8601
▁Almost	-8602
▁Joseph	-8603
▁Rwanda	-8604
▁Square	-8605
▁System	-8606
▁acquis	-8607
▁behave	-8608
▁bought	-8609
▁bright	-8610
▁devise	-8611
▁ethics	-8612
▁master	-8613
▁missed	-8614
▁phones	-8615
▁precip	-8616
▁purely	-8617
▁rivals	-8618
▁soccer	-8619
▁solved	-8620
inations	-8621
▁Algeria	-8622
▁Charles	-8623
▁Success	-8624
▁assumes	-8625
▁booming	-8626
▁consume	-8627
▁drawing	-8628
▁emulate	-8629
▁founded	-8630
▁horizon	-8631
▁prefere	-8632
▁reveals	-8633
▁scrutin	-8634
▁sending	-8635
▁talents	-8636
▁virtual	-8637
▁visible	-8638
▁Agricult	-8639
▁Medvedev	-8640
▁Official	-8641
▁adjusted	-8642
▁borrowed	-8643
▁creditor	-8644
▁defeated	-8645
▁deployed	-8646
▁distrust	-8647
▁entities	-8648
▁grouping	-8649
▁regulate	-8650
▁sluggish	-8651
▁stagnant	-8652
performing	-8653
▁Caribbean	-8654
▁Pakistani	-8655
▁campaigns	-8656
▁defending	-8657
▁desirable	-8658
▁emotional	-8659
▁employers	-8660
▁mortality	-8661
▁principal	-8662
▁realizing	-8663
▁recapital	-8664
▁reference	-8665
▁translate	-8666
information	-8667
responsible	-8668
▁abandoning	-8669
▁attracting	-8670
▁complaints	-8671
▁complexity	-8672
▁coordinate	-8673
▁disorderly	-8674
▁enthusiasm	-8675
▁groundwork	-8676
▁monitoring	-8677
▁sustaining	-8678
▁treatments	-8679
▁turbulence	-8680
▁undertaken	-8681
▁controlling	-8682
▁disruptions	-8683
▁distributed	-8684
▁emphasizing	-8685
▁foreseeable	-8686
▁interesting	-8687
▁philosopher	-8688
▁commentators	-8689
▁nationalists	-8690
▁overcapacity	-8691
▁predecessors	-8692
▁unilaterally	-8693
▁approximately	-8694
▁normalization	-8695
▁privatization	-8696
▁characteristics	-8697
EP	-8698
oo	-8699
▁x	-8700
bas	-8701
des	-8702
kes	-8703
map	-8704
och	-8705
sum	-8706
sun	-8707
ych	-8708
▁2,	-8709
▁La	-8710
▁sn	-8711
000,	-8712
anth	-8713
arer	-8714
atri	-8715
cell	-8716
disc	-8717
emen	-8718
erry	-8719
onym	-8720
▁204	-8721
▁Bre	-8722
▁COP	-8723
▁SAN	-8724
▁Sol	-8725
▁Vol	-8726
▁lit	-8727
▁los	-8728
▁syn	-8729
▁wal	-8730
aning	-8731
backs	-8732
great	-8733
ienna	-8734
intao	-8735
olved	-8736
ports	-8737
winds	-8738
ymmet	-8739
▁1989	-8740
▁Cath	-8741
▁Mass	-8742
▁Wild	-8743
▁Yanu	-8744
▁buff	-8745
▁bust	-8746
▁film	-8747
▁luck	-8748
▁male	-8749
▁rain	-8750
▁rend	-8751
▁reun	-8752
▁sequ	-8753
▁toll	-8754
Palest	-8755
addafi	-8756
fiscal	-8757
global	-8758
imated	-8759
kovych	-8760
losure	-8761
regard	-8762
resist	-8763
▁2002,	-8764
▁Artic	-8765
▁Henry	-8766
▁alter	-8767
▁bills	-8768
▁brief	-8769
▁flaws	-8770
▁incur	-8771
▁inhib	-8772
▁mixed	-8773
▁naval	-8774
▁panic	-8775
▁param	-8776
▁phone	-8777
▁proud	-8778
▁quiet	-8779
▁rises	-8780
▁safer	-8781
▁topic	-8782
America	-8783
control	-8784
etermin	-8785
iencies	-8786
▁Better	-8787
▁Histor	-8788
▁Jintao	-8789
▁Valley	-8790
▁benign	-8791
▁cultiv	-8792
▁curric	-8793
▁cycles	-8794
▁detect	-8795
▁fertil	-8796
▁hurric	-8797
▁occurs	-8798
▁portra	-8799
▁ranked	-8800
▁repair	-8801
▁repeat	-8802
▁rescue	-8803
▁rivers	-8804
▁robots	-8805
▁strain	-8806
▁theore	-8807
▁winner	-8808
Japanese	-8809
cyclical	-8810
idential	-8811
ognitive	-8812
ologists	-8813
▁Balkans	-8814
▁Senkaku	-8815
▁Several	-8816
▁Somalia	-8817
▁applies	-8818
▁arrived	-8819
▁authors	-8820
▁automob	-8821
▁broaden	-8822
▁coastal	-8823
▁confirm	-8824
▁debtors	-8825
▁deliber	-8826
▁endless	-8827
▁enlight	-8828
▁impover	-8829
▁insight	-8830
▁lacking	-8831
▁lifting	-8832
▁orderly	-8833
▁stalled	-8834
▁student	-8835
▁tremend	-8836
▁vibrant	-8837
▁village	-8838
▁whereby	-8839
▁Emmanuel	-8840
▁Exchange	-8841
▁algorith	-8842
▁captured	-8843
▁detailed	-8844
▁diminish	-8845
▁displace	-8846
▁document	-8847
▁laureate	-8848
▁undercut	-8849
▁whenever	-8850
productive	-8851
▁Authority	-8852
▁Economics	-8853
▁Northeast	-8854
▁contagion	-8855
▁contained	-8856
▁dividends	-8857
▁exclusion	-8858
▁extending	-8859
▁interview	-8860
▁liability	-8861
▁prisoners	-8862
▁sacrifice	-8863
▁Protection	-8864
▁Yanukovych	-8865
▁censorship	-8866
▁connection	-8867
▁decisively	-8868
▁deterrence	-8869
▁procedures	-8870
▁recessions	-8871
▁respective	-8872
▁Corporation	-8873
▁coefficient	-8874
▁comfortable	-8875
▁excessively	-8876
▁exemplified	-8877
▁inspiration	-8878
▁negotiation	-8879
▁speculation	-8880
▁Specifically	-8881
▁historically	-8882
▁disappointing	-8883
▁dysfunctional	-8884
▁participating	-8885
▁psychological	-8886
▁industrialized	-8887
▁multilateralism	-8888
-8	-8889
30	-8890
hr	-8891
▁¥	-8892
LAN	-8893
apt	-8894
asy	-8895
bán	-8896
due	-8897
jud	-8898
ker	-8899
law	-8900
oul	-8901
pol	-8902
vak	-8903
van	-8904
alin	-8905
emit	-8906
euro	-8907
grid	-8908
quer	-8909
requ	-8910
spec	-8911
▁$40	-8912
▁16%	-8913
▁Dis	-8914
▁Don	-8915
▁Tax	-8916
▁Tob	-8917
▁Win	-8918
▁ang	-8919
▁arm	-8920
▁ast	-8921
▁esp	-8922
▁lic	-8923
▁peg	-8924
▁pil	-8925
▁sky	-8926
abled	-8927
archy	-8928
green	-8929
iques	-8930
jiang	-8931
ounce	-8932
qiang	-8933
ronts	-8934
trans	-8935
unity	-8936
▁Alex	-8937
▁Army	-8938
▁Emer	-8939
▁Mark	-8940
▁Shen	-8941
▁caut	-8942
▁cold	-8943
▁cosm	-8944
▁depr	-8945
▁desp	-8946
▁diff	-8947
▁fake	-8948
▁grim	-8949
▁hate	-8950
▁item	-8951
▁mini	-8952
▁peer	-8953
▁plus	-8954
▁pund	-8955
▁resh	-8956
▁soil	-8957
▁stal	-8958
▁summ	-8959
▁swit	-8960
▁tsun	-8961
Brazil	-8962
Soviet	-8963
encing	-8964
guided	-8965
wealth	-8966
▁1989,	-8967
▁Above	-8968
▁Elect	-8969
▁Orbán	-8970
▁bases	-8971
▁brand	-8972
▁cance	-8973
▁daugh	-8974
▁inaug	-8975
▁indif	-8976
▁irrig	-8977
▁miles	-8978
▁names	-8979
▁perse	-8980
▁reloc	-8981
▁sheet	-8982
▁spark	-8983
▁touch	-8984
▁upris	-8985
ariably	-8986
liberal	-8987
quarter	-8988
▁Bosnia	-8989
▁Should	-8990
▁Simply	-8991
▁Vienna	-8992
▁afflic	-8993
▁aggrav	-8994
▁behalf	-8995
▁evolve	-8996
▁handle	-8997
▁hazard	-8998
▁impede	-8999
▁median	-9000
▁nomine	-9001
▁phrase	-9002
▁recall	-9003
▁spends	-9004
▁taught	-9005
▁unanim	-9006
▁worker	-9007
commerce	-9008
▁Earlier	-9009
▁Finland	-9010
▁Indians	-9011
▁carries	-9012
▁college	-9013
▁delayed	-9014
▁dismant	-9015
▁factory	-9016
▁fishing	-9017
▁forever	-9018
▁genetic	-9019
▁harmful	-9020
▁issuing	-9021
▁migrant	-9022
▁mindset	-9023
▁outrage	-9024
▁penalty	-9025
▁prudent	-9026
▁rivalry	-9027
▁surface	-9028
▁traders	-9029
▁unequal	-9030
▁western	-9031
▁writing	-9032
▁arrested	-9033
▁assembly	-9034
▁defining	-9035
▁enduring	-9036
▁entitled	-9037
▁frequent	-9038
▁ignoring	-9039
▁imagined	-9040
▁judicial	-9041
▁meltdown	-9042
▁packages	-9043
▁preoccup	-9044
▁ratified	-9045
▁tactical	-9046
▁thriving	-9047
▁breakdown	-9048
▁democrats	-9049
▁disappear	-9050
▁factories	-9051
▁formation	-9052
▁historian	-9053
▁intensity	-9054
▁judiciary	-9055
▁machinery	-9056
▁precedent	-9057
▁providers	-9058
▁returning	-9059
▁socialist	-9060
▁suppliers	-9061
▁suspicion	-9062
▁undertake	-9063
▁attributed	-9064
▁continuous	-9065
▁correspond	-9066
▁cumulative	-9067
▁earthquake	-9068
▁escalating	-9069
▁heightened	-9070
▁invariably	-9071
▁proclaimed	-9072
▁profoundly	-9073
▁sanitation	-9074
▁unexpected	-9075
▁association	-9076
▁destination	-9077
▁determining	-9078
▁exclusively	-9079
▁intensified	-9080
▁negotiators	-9081
▁respondents	-9082
▁transitions	-9083
▁evolutionary	-9084
▁transforming	-9085
▁Transatlantic	-9086
▁collaborative	-9087
▁fragmentation	-9088
▁interpretation	-9089
▁reconstruction	-9090
▁straightforward	-9091
45	-9092
KP	-9093
yc	-9094
ye	-9095
ón	-9096
200	-9097
ARC	-9098
ICH	-9099
MEs	-9100
ald	-9101
ali	-9102
big	-9103
dec	-9104
jad	-9105
kin	-9106
net	-9107
odd	-9108
tes	-9109
uma	-9110
vez	-9111
arat	-9112
case	-9113
hist	-9114
inal	-9115
lier	-9116
ndra	-9117
prus	-9118
umin	-9119
usse	-9120
zing	-9121
▁11%	-9122
▁12%	-9123
▁150	-9124
▁17%	-9125
▁400	-9126
▁AMR	-9127
▁Ash	-9128
▁Bor	-9129
▁Com	-9130
▁Def	-9131
▁Dub	-9132
▁End	-9133
▁Fuk	-9134
▁MIT	-9135
▁Mat	-9136
▁Six	-9137
▁Tay	-9138
-2008	-9139
Afric	-9140
Semit	-9141
addam	-9142
aping	-9143
echan	-9144
izers	-9145
ordon	-9146
ounds	-9147
pered	-9148
polit	-9149
ravel	-9150
there	-9151
▁2050	-9152
▁Alan	-9153
▁Bund	-9154
▁Cost	-9155
▁Jong	-9156
▁NGOs	-9157
▁Nare	-9158
▁Post	-9159
▁Prov	-9160
▁Stan	-9161
▁beat	-9162
▁blog	-9163
▁evil	-9164
▁feet	-9165
▁grip	-9166
▁mild	-9167
▁murd	-9168
▁pand	-9169
▁rush	-9170
▁tied	-9171
▁town	-9172
▁wife	-9173
arious	-9174
compet	-9175
inated	-9176
inejad	-9177
rained	-9178
saving	-9179
states	-9180
▁1960’	-9181
▁2050.	-9182
▁Armen	-9183
▁Brown	-9184
▁Major	-9185
▁Micro	-9186
▁Moroc	-9187
▁River	-9188
▁Yemen	-9189
▁alive	-9190
▁backd	-9191
▁cease	-9192
▁cited	-9193
▁craft	-9194
▁embod	-9195
▁fract	-9196
▁indig	-9197
▁jihad	-9198
▁keeps	-9199
▁owned	-9200
▁polio	-9201
▁river	-9202
▁roots	-9203
▁split	-9204
▁spoke	-9205
▁steep	-9206
▁stuck	-9207
Western	-9208
acities	-9209
alities	-9210
defense	-9211
enophob	-9212
ologist	-9213
oration	-9214
renched	-9215
▁Agenda	-9216
▁Making	-9217
▁Martin	-9218
▁Mechan	-9219
▁Ronald	-9220
▁Saddam	-9221
▁Zedong	-9222
▁bridge	-9223
▁deemed	-9224
▁denied	-9225
▁exempt	-9226
▁flawed	-9227
▁floods	-9228
▁funded	-9229
▁grants	-9230
▁inputs	-9231
▁lender	-9232
▁notice	-9233
▁oversh	-9234
culation	-9235
porarily	-9236
regional	-9237
▁Bretton	-9238
▁Increas	-9239
▁Keqiang	-9240
▁Koreans	-9241
▁Moldova	-9242
▁Summers	-9243
▁answers	-9244
▁asymmet	-9245
▁boosted	-9246
▁burdens	-9247
▁caution	-9248
▁charged	-9249
▁conclus	-9250
▁conting	-9251
▁coupled	-9252
▁covered	-9253
▁monitor	-9254
▁nominee	-9255
▁outsize	-9256
▁placing	-9257
▁schemes	-9258
▁soaring	-9259
▁unpopul	-9260
▁worries	-9261
establish	-9262
▁Narendra	-9263
▁Protocol	-9264
▁agreeing	-9265
▁aircraft	-9266
▁bailouts	-9267
▁choosing	-9268
▁describe	-9269
▁distance	-9270
▁exceeded	-9271
▁geopolit	-9272
▁headline	-9273
▁heritage	-9274
▁involves	-9275
▁irrevers	-9276
▁mistakes	-9277
▁revision	-9278
▁segments	-9279
▁stunning	-9280
▁terrible	-9281
▁theories	-9282
▁violated	-9283
▁watching	-9284
▁2008-2009	-9285
▁Peninsula	-9286
▁condemned	-9287
▁considers	-9288
▁disregard	-9289
▁exclusive	-9290
▁exhausted	-9291
▁footprint	-9292
▁forefront	-9293
▁intensify	-9294
▁justified	-9295
▁medicines	-9296
▁occurring	-9297
▁prevailed	-9298
▁professor	-9299
▁respected	-9300
▁selection	-9301
▁Australian	-9302
▁biological	-9303
▁contradict	-9304
▁definition	-9305
▁disruptive	-9306
▁eliminated	-9307
▁indication	-9308
▁superpower	-9309
▁temptation	-9310
▁unemployed	-9311
withstanding	-9312
▁assessments	-9313
▁bureaucrats	-9314
▁efficiently	-9315
▁exceptional	-9316
▁preferences	-9317
▁unnecessary	-9318
▁demonstrates	-9319
▁manufactured	-9320
▁marginalized	-9321
▁Congressional	-9322
▁possibilities	-9323
▁predominantly	-9324
▁democratization	-9325
15	-9326
FTA	-9327
OMC	-9328
epr	-9329
irs	-9330
zen	-9331
▁$9	-9332
▁(“	-9333
▁--	-9334
▁Lu	-9335
▁Mo	-9336
aise	-9337
aked	-9338
cked	-9339
conf	-9340
hman	-9341
host	-9342
risk	-9343
roll	-9344
uepr	-9345
wage	-9346
ávez	-9347
▁$20	-9348
▁1.3	-9349
▁Adv	-9350
▁Age	-9351
▁Ali	-9352
▁Equ	-9353
▁Jan	-9354
▁MUN	-9355
▁Mic	-9356
▁Pre	-9357
▁Web	-9358
▁une	-9359
aying	-9360
eline	-9361
isive	-9362
orest	-9363
stone	-9364
vakia	-9365
▁1998	-9366
▁Bulg	-9367
▁Cels	-9368
▁Kiss	-9369
▁Kurd	-9370
▁Long	-9371
▁Mult	-9372
▁Next	-9373
▁Seas	-9374
▁anch	-9375
▁bias	-9376
▁bulk	-9377
▁culp	-9378
▁fant	-9379
▁hide	-9380
▁jail	-9381
▁loos	-9382
▁pump	-9383
▁shot	-9384
▁west	-9385
nation	-9386
orious	-9387
othing	-9388
profit	-9389
uating	-9390
▁1,000	-9391
▁1990,	-9392
▁2006.	-9393
▁Iraqi	-9394
▁Woods	-9395
▁Worse	-9396
▁Would	-9397
▁arsen	-9398
▁avert	-9399
▁award	-9400
▁blind	-9401
▁burst	-9402
▁chose	-9403
▁dying	-9404
▁erode	-9405
▁grasp	-9406
▁hence	-9407
▁lifet	-9408
▁merch	-9409
▁radio	-9410
▁recur	-9411
▁redef	-9412
▁rever	-9413
▁spear	-9414
▁swift	-9415
▁towns	-9416
▁urged	-9417
▁vague	-9418
▁weigh	-9419
arching	-9420
atories	-9421
consist	-9422
erating	-9423
hinking	-9424
looking	-9425
ovement	-9426
umbling	-9427
▁Baltic	-9428
▁Cyprus	-9429
▁Gordon	-9430
▁MUNICH	-9431
▁Manuel	-9432
▁Prince	-9433
▁absent	-9434
▁ballot	-9435
▁bluepr	-9436
▁culmin	-9437
▁drives	-9438
▁entity	-9439
▁images	-9440
▁method	-9441
▁parlia	-9442
▁rememb	-9443
▁replic	-9444
▁starts	-9445
▁tested	-9446
▁vastly	-9447
▁worlds	-9448
specific	-9449
▁Article	-9450
▁Britons	-9451
▁Celsius	-9452
▁Goldman	-9453
▁Morocco	-9454
▁Nicolas	-9455
▁Science	-9456
▁blocked	-9457
▁burning	-9458
▁complac	-9459
▁distant	-9460
▁emerges	-9461
▁encount	-9462
▁endorse	-9463
▁forging	-9464
▁forming	-9465
▁handful	-9466
▁premium	-9467
▁ratings	-9468
▁rebound	-9469
▁reduces	-9470
▁rethink	-9471
▁solving	-9472
▁suffers	-9473
▁totally	-9474
▁trained	-9475
▁tsunami	-9476
developed	-9477
enhancing	-9478
▁Administ	-9479
▁Emerging	-9480
▁alarming	-9481
▁blocking	-9482
▁epidemic	-9483
▁eventual	-9484
▁evolving	-9485
▁exporter	-9486
▁facility	-9487
▁formally	-9488
▁friendly	-9489
▁minimize	-9490
▁parallel	-9491
▁partisan	-9492
▁reformed	-9493
▁republic	-9494
▁soldiers	-9495
▁symbolic	-9496
▁traction	-9497
▁tradable	-9498
▁treating	-9499
▁xenophob	-9500
▁Kissinger	-9501
▁admission	-9502
▁champions	-9503
▁civilians	-9504
▁discourse	-9505
▁headwinds	-9506
▁hostility	-9507
▁illiberal	-9508
▁impending	-9509
▁inspiring	-9510
▁nutrition	-9511
▁overthrow	-9512
▁spreading	-9513
▁surpassed	-9514
▁suspected	-9515
▁unpredict	-9516
▁worldview	-9517
▁accessible	-9518
▁blockchain	-9519
▁coalitions	-9520
▁collateral	-9521
▁correction	-9522
▁emphasizes	-9523
▁indigenous	-9524
▁militarily	-9525
▁profitable	-9526
▁tremendous	-9527
▁Ahmadinejad	-9528
▁advertising	-9529
▁destructive	-9530
▁enlightened	-9531
▁parliaments	-9532
▁residential	-9533
▁temporarily	-9534
▁Independence	-9535
▁availability	-9536
▁conservation	-9537
▁conversation	-9538
▁fluctuations	-9539
▁impoverished	-9540
▁indefinitely	-9541
▁perspectives	-9542
▁unacceptable	-9543
▁conservatives	-9544
▁decentralized	-9545
▁uncertainties	-9546
▁demonstrations	-9547
▁overwhelmingly	-9548
▁entrepreneurial	-9549
.,	-9550
Le	-9551
zi	-9552
ORE	-9553
alt	-9554
ano	-9555
bel	-9556
ben	-9557
hot	-9558
igm	-9559
ika	-9560
ikh	-9561
ima	-9562
len	-9563
rol	-9564
uum	-9565
uzz	-9566
wor	-9567
▁CT	-9568
▁Ev	-9569
▁nu	-9570
asty	-9571
ilip	-9572
ills	-9573
imag	-9574
lose	-9575
ords	-9576
ppro	-9577
that	-9578
trad	-9579
ulum	-9580
weap	-9581
▁18%	-9582
▁Ach	-9583
▁Dal	-9584
▁FTA	-9585
▁Fut	-9586
▁Kar	-9587
▁Lag	-9588
▁Sur	-9589
▁Yas	-9590
▁inj	-9591
▁mil	-9592
▁mir	-9593
▁ped	-9594
▁pit	-9595
▁sun	-9596
aksin	-9597
asset	-9598
ernal	-9599
icago	-9600
illon	-9601
omics	-9602
organ	-9603
osion	-9604
ostic	-9605
overs	-9606
pivot	-9607
rants	-9608
reach	-9609
ropri	-9610
ruits	-9611
ullah	-9612
▁1.5%	-9613
▁Draw	-9614
▁Fram	-9615
▁Gore	-9616
▁Open	-9617
▁Poor	-9618
▁Prom	-9619
▁Rome	-9620
▁Snow	-9621
▁aged	-9622
▁edit	-9623
▁feat	-9624
▁leng	-9625
▁park	-9626
▁succ	-9627
▁sums	-9628
andise	-9629
ankind	-9630
astics	-9631
comers	-9632
estock	-9633
igaret	-9634
imalay	-9635
people	-9636
▁2002.	-9637
▁2018,	-9638
▁Alban	-9639
▁Boliv	-9640
▁Dream	-9641
▁Large	-9642
▁MILAN	-9643
▁chess	-9644
▁crude	-9645
▁hikes	-9646
▁innoc	-9647
▁ocean	-9648
▁rests	-9649
▁revel	-9650
▁seeds	-9651
▁tends	-9652
▁wield	-9653
anthrop	-9654
arshall	-9655
artisan	-9656
leading	-9657
ologies	-9658
roughts	-9659
seekers	-9660
viously	-9661
▁Chávez	-9662
▁Lehman	-9663
▁Michel	-9664
▁Stalin	-9665
▁Twenty	-9666
▁Wilson	-9667
▁differ	-9668
▁expose	-9669
▁fronts	-9670
▁hatred	-9671
▁incurs	-9672
▁mathem	-9673
▁ostens	-9674
▁player	-9675
▁provoc	-9676
▁ratify	-9677
▁savers	-9678
▁shrink	-9679
▁spiral	-9680
▁traded	-9681
▁visits	-9682
affected	-9683
ineering	-9684
▁Academy	-9685
▁Chicago	-9686
▁Drawing	-9687
▁Himalay	-9688
▁Kurdish	-9689
▁Osborne	-9690
▁Society	-9691
▁Thaksin	-9692
▁adviser	-9693
▁aligned	-9694
▁cleaner	-9695
▁consent	-9696
▁discred	-9697
▁educate	-9698
▁erosion	-9699
▁hostile	-9700
▁inhabit	-9701
▁margins	-9702
▁ordered	-9703
▁outlets	-9704
▁postwar	-9705
▁propose	-9706
▁pundits	-9707
▁reading	-9708
▁satisfy	-9709
▁settled	-9710
▁silence	-9711
▁storage	-9712
▁tempted	-9713
▁tourism	-9714
▁urgency	-9715
▁vicious	-9716
▁watched	-9717
immigrant	-9718
▁Brothers	-9719
▁Israelis	-9720
▁Ministry	-9721
▁Scottish	-9722
▁Thatcher	-9723
▁abundant	-9724
▁acquired	-9725
▁attended	-9726
▁backdrop	-9727
▁converge	-9728
▁covering	-9729
▁decrease	-9730
▁distress	-9731
▁droughts	-9732
▁excesses	-9733
▁favorite	-9734
▁gathered	-9735
▁isolated	-9736
▁judgment	-9737
▁opposing	-9738
▁orthodox	-9739
▁presents	-9740
▁referred	-9741
▁scrutiny	-9742
▁selected	-9743
▁shortage	-9744
▁signaled	-9745
▁supervis	-9746
▁tendency	-9747
▁thinkers	-9748
▁upheaval	-9749
especially	-9750
orestation	-9751
▁Investors	-9752
▁advocated	-9753
▁assessing	-9754
▁broadcast	-9755
▁certainty	-9756
▁cognitive	-9757
▁combating	-9758
▁extremist	-9759
▁functions	-9760
▁happiness	-9761
▁immigrant	-9762
▁indicator	-9763
▁meanwhile	-9764
▁offensive	-9765
▁overnight	-9766
▁reasoning	-9767
▁recipient	-9768
▁relevance	-9769
▁spearhead	-9770
▁acceptable	-9771
▁announcing	-9772
▁capability	-9773
▁convincing	-9774
▁delegation	-9775
▁deployment	-9776
▁incomplete	-9777
▁infectious	-9778
▁influenced	-9779
▁innovators	-9780
▁manageable	-9781
▁newspapers	-9782
▁peacefully	-9783
▁philosophy	-9784
▁predicting	-9785
▁provincial	-9786
▁reflection	-9787
▁reinforces	-9788
▁remembered	-9789
▁reportedly	-9790
▁resentment	-9791
▁suspicious	-9792
▁techniques	-9793
▁unbalanced	-9794
▁accommodate	-9795
▁composition	-9796
▁constitutes	-9797
▁contributes	-9798
▁disparities	-9799
▁restricting	-9800
▁underscores	-9801
▁immunization	-9802
▁irreversible	-9803
▁Environmental	-9804
▁Globalization	-9805
▁disagreements	-9806
▁irresponsible	-9807
▁profitability	-9808
▁Administration	-9809
75	-9810
ST	-9811
eu	-9812
ps	-9813
-15	-9814
400	-9815
Pro	-9816
TIA	-9817
asi	-9818
erg	-9819
fur	-9820
isa	-9821
nor	-9822
obs	-9823
ped	-9824
poc	-9825
sky	-9826
▁Up	-9827
▁id	-9828
agog	-9829
aste	-9830
core	-9831
dict	-9832
eted	-9833
gone	-9834
nard	-9835
offs	-9836
orce	-9837
ship	-9838
thal	-9839
tics	-9840
uble	-9841
umes	-9842
zhen	-9843
▁24%	-9844
▁28%	-9845
▁CDF	-9846
▁Dec	-9847
▁Lad	-9848
▁McC	-9849
▁Rem	-9850
▁Rou	-9851
▁Ter	-9852
▁bes	-9853
▁bon	-9854
▁box	-9855
▁fab	-9856
TIAGO	-9857
aired	-9858
endas	-9859
itous	-9860
peace	-9861
peror	-9862
vigor	-9863
▁Area	-9864
▁Belg	-9865
▁Budd	-9866
▁Gaul	-9867
▁Gini	-9868
▁Plen	-9869
▁auto	-9870
▁cere	-9871
▁cool	-9872
▁dual	-9873
▁exec	-9874
▁hect	-9875
▁loud	-9876
▁pock	-9877
▁sale	-9878
▁stif	-9879
▁unav	-9880
▁urge	-9881
dollar	-9882
elfare	-9883
ighted	-9884
olving	-9885
public	-9886
uously	-9887
▁Banks	-9888
▁Doing	-9889
▁Qaeda	-9890
▁Right	-9891
▁Youth	-9892
▁afflu	-9893
▁blunt	-9894
▁breat	-9895
▁chart	-9896
▁consp	-9897
▁drone	-9898
▁games	-9899
▁grass	-9900
▁griev	-9901
▁impet	-9902
▁incon	-9903
▁mired	-9904
▁relax	-9905
▁swing	-9906
▁theme	-9907
Russian	-9908
centric	-9909
culosis	-9910
ication	-9911
induced	-9912
iversal	-9913
justice	-9914
keeping	-9915
setting	-9916
support	-9917
tenance	-9918
▁Execut	-9919
▁Fillon	-9920
▁Nearly	-9921
▁Romney	-9922
▁attain	-9923
▁beings	-9924
▁cement	-9925
▁fabric	-9926
▁habits	-9927
▁harass	-9928
▁hidden	-9929
▁luxury	-9930
▁massac	-9931
▁overly	-9932
▁prolif	-9933
▁resemb	-9934
▁square	-9935
▁tenure	-9936
▁upside	-9937
▁winter	-9938
curement	-9939
financed	-9940
▁Liberal	-9941
▁Maynard	-9942
▁Mexican	-9943
▁Overall	-9944
▁Romania	-9945
▁agendas	-9946
▁assured	-9947
▁beliefs	-9948
▁compare	-9949
▁concess	-9950
▁extract	-9951
▁favored	-9952
▁fleeing	-9953
▁harvest	-9954
▁illustr	-9955
▁journey	-9956
▁lagging	-9957
▁malaise	-9958
▁militar	-9959
▁millenn	-9960
▁minimal	-9961
▁priorit	-9962
▁records	-9963
▁stepped	-9964
▁strides	-9965
▁tighter	-9966
▁tougher	-9967
▁transit	-9968
▁unknown	-9969
▁unusual	-9970
▁winners	-9971
dependent	-9972
estically	-9973
insurance	-9974
ratically	-9975
▁Canadian	-9976
▁Democrat	-9977
▁Movement	-9978
▁Recently	-9979
▁SANTIAGO	-9980
▁Shenzhen	-9981
▁aversion	-9982
▁defenses	-9983
▁evaluate	-9984
▁fairness	-9985
▁fraction	-9986
▁highways	-9987
▁inaction	-9988
▁likewise	-9989
▁operates	-9990
▁persists	-9991
▁prompted	-9992
▁reversal	-9993
▁reviving	-9994
▁robotics	-9995
▁shocking	-9996
▁Economist	-9997
▁Eurobonds	-9998
▁allegedly	-9999
▁believing	-10000
▁celebrate	-10001
▁dedicated	-10002
▁demograph	-10003
▁diagnosis	-10004
▁engineers	-10005
▁extension	-10006
▁fragility	-10007
▁inconsist	-10008
▁launching	-10009
▁livestock	-10010
▁magnitude	-10011
▁perfectly	-10012
▁permitted	-10013
▁regulated	-10014
▁schooling	-10015
▁skeptical	-10016
▁tolerance	-10017
▁workplace	-10018
otechnology	-10019
uberculosis	-10020
▁Ukrainians	-10021
▁ambassador	-10022
▁autocratic	-10023
▁bargaining	-10024
▁bipartisan	-10025
▁completion	-10026
▁discourage	-10027
▁electronic	-10028
▁entrenched	-10029
▁irrigation	-10030
▁liberalism	-10031
▁motivation	-10032
▁performing	-10033
▁privileged	-10034
▁privileges	-10035
▁supplement	-10036
▁accusations	-10037
▁collaborate	-10038
▁concentrate	-10039
▁expectation	-10040
▁merchandise	-10041
▁occupations	-10042
▁protections	-10043
▁technocrats	-10044
▁territories	-10045
▁undertaking	-10046
▁coordinating	-10047
▁intensifying	-10048
▁interactions	-10049
▁jurisdiction	-10050
▁underpinning	-10051
▁assertiveness	-10052
▁deteriorating	-10053
▁exceptionally	-10054
▁justification	-10055
At	-10056
bl	-10057
nn	-10058
tt	-10059
HAN	-10060
afe	-10061
eal	-10062
fty	-10063
iar	-10064
ids	-10065
ito	-10066
mat	-10067
mod	-10068
oup	-10069
rey	-10070
too	-10071
▁90	-10072
atch	-10073
bial	-10074
furt	-10075
iast	-10076
iden	-10077
lege	-10078
life	-10079
list	-10080
perc	-10081
pply	-10082
rony	-10083
step	-10084
west	-10085
▁1.2	-10086
▁1.4	-10087
▁2.5	-10088
▁DNA	-10089
▁Dem	-10090
▁Ein	-10091
▁Ent	-10092
▁Est	-10093
▁God	-10094
▁Kir	-10095
▁Leg	-10096
▁Mel	-10097
▁Mem	-10098
▁WHO	-10099
▁Who	-10100
▁coc	-10101
▁cyn	-10102
▁dry	-10103
▁fro	-10104
▁odd	-10105
▁sad	-10106
▁tor	-10107
South	-10108
after	-10109
armed	-10110
atell	-10111
auses	-10112
eling	-10113
hesis	-10114
iates	-10115
iracy	-10116
isite	-10117
licop	-10118
lined	-10119
major	-10120
ouses	-10121
▁100%	-10122
▁6.5%	-10123
▁Bhut	-10124
▁FARC	-10125
▁Kenn	-10126
▁Roma	-10127
▁Soon	-10128
▁Tanz	-10129
▁Thai	-10130
▁bell	-10131
▁club	-10132
▁edge	-10133
▁fees	-10134
▁nurt	-10135
▁plag	-10136
▁swap	-10137
▁thin	-10138
▁tide	-10139
Israel	-10140
ferent	-10141
fueled	-10142
idable	-10143
irical	-10144
ledged	-10145
owered	-10146
social	-10147
ussein	-10148
▁2018.	-10149
▁2025.	-10150
▁Basel	-10151
▁Black	-10152
▁Costa	-10153
▁Could	-10154
▁Fifth	-10155
▁Ghana	-10156
▁Guang	-10157
▁Impro	-10158
▁Kerry	-10159
▁Regul	-10160
▁Royal	-10161
▁Secur	-10162
▁Singh	-10163
▁allev	-10164
▁coerc	-10165
▁doors	-10166
▁drain	-10167
▁fines	-10168
▁forum	-10169
▁genoc	-10170
▁globe	-10171
▁habit	-10172
▁music	-10173
▁prize	-10174
▁refin	-10175
▁retal	-10176
▁rigor	-10177
▁slump	-10178
▁spons	-10179
▁stems	-10180
▁stret	-10181
▁teach	-10182
▁unite	-10183
▁unlim	-10184
▁upper	-10185
▁utter	-10186
▁video	-10187
herence	-10188
onymous	-10189
porting	-10190
ratives	-10191
umption	-10192
uration	-10193
ussions	-10194
▁Darfur	-10195
▁Thanks	-10196
▁bitter	-10197
▁breaks	-10198
▁casual	-10199
▁compel	-10200
▁eroded	-10201
▁excell	-10202
▁fixing	-10203
▁guided	-10204
▁hailed	-10205
▁induce	-10206
▁influx	-10207
▁ingred	-10208
▁laying	-10209
▁losers	-10210
▁misman	-10211
▁orient	-10212
▁overhe	-10213
▁patent	-10214
▁rebels	-10215
▁reiter	-10216
▁satell	-10217
▁silent	-10218
▁solely	-10219
▁suprem	-10220
▁triple	-10221
▁underw	-10222
▁valued	-10223
▁wishes	-10224
Pakistan	-10225
▁Digital	-10226
▁Eurasia	-10227
▁Hussein	-10228
▁Wilders	-10229
▁William	-10230
▁antagon	-10231
▁augment	-10232
▁chooses	-10233
▁contact	-10234
▁dissent	-10235
▁drought	-10236
▁ensuing	-10237
▁ensures	-10238
▁evasion	-10239
▁extends	-10240
▁knowing	-10241
▁minutes	-10242
▁notable	-10243
▁refrain	-10244
▁regards	-10245
▁reliant	-10246
▁statist	-10247
▁succumb	-10248
▁surging	-10249
▁surrend	-10250
▁unleash	-10251
▁unravel	-10252
▁visions	-10253
effective	-10254
political	-10255
resistant	-10256
strategic	-10257
▁Bulgaria	-10258
▁Cultural	-10259
▁Iranians	-10260
▁Politics	-10261
▁Sciences	-10262
▁Xinjiang	-10263
▁adapting	-10264
▁advisers	-10265
▁backward	-10266
▁breaking	-10267
▁commerce	-10268
▁daughter	-10269
▁deepened	-10270
▁depended	-10271
▁episodes	-10272
▁feelings	-10273
▁imprison	-10274
▁initiate	-10275
▁inspired	-10276
▁lifetime	-10277
▁missions	-10278
▁navigate	-10279
▁normally	-10280
▁perceive	-10281
▁pointing	-10282
▁postpone	-10283
▁predicts	-10284
▁proposes	-10285
▁reaffirm	-10286
▁resisted	-10287
▁restored	-10288
▁spurring	-10289
▁standoff	-10290
▁suppress	-10291
▁tourists	-10292
▁troubles	-10293
management	-10294
ologically	-10295
▁Catalonia	-10296
▁Companies	-10297
▁Frankfurt	-10298
▁Mechanism	-10299
▁Microsoft	-10300
▁Otherwise	-10301
▁Relations	-10302
▁academics	-10303
▁arbitrary	-10304
▁balancing	-10305
▁completed	-10306
▁countless	-10307
▁crucially	-10308
▁depending	-10309
▁distorted	-10310
▁everybody	-10311
▁fisheries	-10312
▁hospitals	-10313
▁mandatory	-10314
▁newcomers	-10315
▁radically	-10316
▁reinvigor	-10317
▁replacing	-10318
▁scenarios	-10319
▁suspended	-10320
▁tightened	-10321
▁unlimited	-10322
▁voluntary	-10323
▁advocating	-10324
▁attraction	-10325
▁bolstering	-10326
▁capacities	-10327
▁committing	-10328
▁compensate	-10329
▁depreciate	-10330
▁difficulty	-10331
▁encourages	-10332
▁formidable	-10333
▁frustrated	-10334
▁hurricanes	-10335
▁indicating	-10336
▁infections	-10337
▁insolvency	-10338
▁mitigation	-10339
▁mobilizing	-10340
▁multipolar	-10341
▁preference	-10342
▁protesters	-10343
▁discredited	-10344
▁geopolitics	-10345
▁imperatives	-10346
▁incremental	-10347
▁maintenance	-10348
▁perceptions	-10349
▁permanently	-10350
▁procurement	-10351
▁publication	-10352
▁settlements	-10353
▁strengthens	-10354
▁surrounding	-10355
▁theoretical	-10356
▁underground	-10357
▁Historically	-10358
▁Intelligence	-10359
▁deregulation	-10360
▁environments	-10361
▁inequalities	-10362
▁subsequently	-10363
▁Comprehensive	-10364
▁Conservatives	-10365
▁deforestation	-10366
▁socioeconomic	-10367
▁unpredictable	-10368
▁unwillingness	-10369
▁diversification	-10370
-4	-10371
-9	-10372
AT	-10373
IT	-10374
PR	-10375
TH	-10376
▁.	-10377
▁i	-10378
-1.	-10379
00,	-10380
dem	-10381
dep	-10382
ils	-10383
nov	-10384
ont	-10385
zbe	-10386
▁(2	-10387
▁Jo	-10388
▁Ox	-10389
▁et	-10390
▁na	-10391
▁“[	-10392
EOUL	-10393
angs	-10394
ania	-10395
assy	-10396
awat	-10397
away	-10398
cile	-10399
etty	-10400
good	-10401
hani	-10402
litz	-10403
lown	-10404
mble	-10405
meas	-10406
omas	-10407
ques	-10408
rapy	-10409
rass	-10410
roat	-10411
room	-10412
stop	-10413
will	-10414
yers	-10415
▁$60	-10416
▁($2	-10417
▁13%	-10418
▁14%	-10419
▁2%,	-10420
▁36%	-10421
▁Abu	-10422
▁EEA	-10423
▁Hel	-10424
▁ICT	-10425
▁Jos	-10426
▁Kyi	-10427
▁Len	-10428
▁Mur	-10429
▁NCD	-10430
▁Oil	-10431
▁Old	-10432
▁Raj	-10433
▁Sar	-10434
▁Suu	-10435
▁Too	-10436
▁dut	-10437
▁jun	-10438
APORE	-10439
amous	-10440
anmen	-10441
atics	-10442
essed	-10443
euver	-10444
fuels	-10445
ially	-10446
oston	-10447
oting	-10448
otion	-10449
phone	-10450
quest	-10451
rones	-10452
▁$500	-10453
▁0.5%	-10454
▁1979	-10455
▁1991	-10456
▁CTBT	-10457
▁Ever	-10458
▁Home	-10459
▁Lula	-10460
▁News	-10461
▁SING	-10462
▁TTIP	-10463
▁Uzbe	-10464
▁Wang	-10465
▁Wars	-10466
▁ages	-10467
▁copy	-10468
▁elev	-10469
▁empt	-10470
▁flat	-10471
▁fool	-10472
▁guer	-10473
▁hier	-10474
▁hind	-10475
▁hint	-10476
▁impe	-10477
▁mant	-10478
▁migr	-10479
▁owes	-10480
▁phot	-10481
▁plot	-10482
▁semi	-10483
▁ship	-10484
▁tant	-10485
around	-10486
cution	-10487
handed	-10488
member	-10489
normal	-10490
ourish	-10491
terror	-10492
ushing	-10493
▁Exper	-10494
▁Prize	-10495
▁SEOUL	-10496
▁angry	-10497
▁camps	-10498
▁dozen	-10499
▁fault	-10500
▁frict	-10501
▁grids	-10502
▁hypot	-10503
▁items	-10504
▁likes	-10505
▁outwe	-10506
▁prest	-10507
▁proof	-10508
▁reign	-10509
▁scene	-10510
▁spell	-10511
▁spike	-10512
▁subdu	-10513
▁tries	-10514
▁uncom	-10515
▁veget	-10516
balance	-10517
changed	-10518
chement	-10519
ersonal	-10520
ighting	-10521
irected	-10522
ometers	-10523
veraged	-10524
▁Action	-10525
▁Annual	-10526
▁Around	-10527
▁Boston	-10528
▁Thomas	-10529
▁Warren	-10530
▁adhere	-10531
▁assemb	-10532
▁checks	-10533
▁denial	-10534
▁earned	-10535
▁electr	-10536
▁favors	-10537
▁fought	-10538
▁hearts	-10539
▁helium	-10540
▁hybrid	-10541
▁ideals	-10542
▁listen	-10543
▁metrop	-10544
▁mining	-10545
▁panels	-10546
▁physic	-10547
▁pretty	-10548
▁preval	-10549
▁reperc	-10550
▁resett	-10551
▁revolt	-10552
▁routes	-10553
▁season	-10554
▁shield	-10555
▁sounds	-10556
▁stalem	-10557
▁strang	-10558
▁street	-10559
▁strive	-10560
▁thrown	-10561
▁unfold	-10562
▁unreal	-10563
▁vacuum	-10564
▁wholes	-10565
▁window	-10566
▁worsen	-10567
resolved	-10568
ructural	-10569
▁Company	-10570
▁Markets	-10571
▁Olympic	-10572
▁Tencent	-10573
▁Winston	-10574
▁anxious	-10575
▁denying	-10576
▁desired	-10577
▁exclude	-10578
▁explore	-10579
▁flowing	-10580
▁helpful	-10581
▁impetus	-10582
▁insists	-10583
▁interim	-10584
▁invited	-10585
▁metrics	-10586
▁monopol	-10587
▁revital	-10588
▁strikes	-10589
▁surveys	-10590
▁tighten	-10591
fficiency	-10592
▁Einstein	-10593
▁Marshall	-10594
▁affluent	-10595
▁allocate	-10596
▁category	-10597
▁centrist	-10598
▁customer	-10599
▁dictator	-10600
▁doubling	-10601
▁embodied	-10602
▁excluded	-10603
▁football	-10604
▁impeding	-10605
▁innovate	-10606
▁instinct	-10607
▁mistrust	-10608
▁opinions	-10609
▁opponent	-10610
▁paradigm	-10611
▁pipeline	-10612
▁renegoti	-10613
▁respects	-10614
▁sentence	-10615
▁stations	-10616
▁sweeping	-10617
▁vigorous	-10618
celeration	-10619
employment	-10620
▁SINGAPORE	-10621
▁Sometimes	-10622
▁Taiwanese	-10623
▁broadband	-10624
▁confronts	-10625
▁conscious	-10626
▁contribut	-10627
▁depressed	-10628
▁diversify	-10629
▁entertain	-10630
▁exercises	-10631
▁explosion	-10632
▁generates	-10633
▁marketing	-10634
▁modernize	-10635
▁operators	-10636
▁paralysis	-10637
▁personnel	-10638
▁reconcile	-10639
▁restraint	-10640
▁struggles	-10641
▁submitted	-10642
▁trillions	-10643
▁troubling	-10644
▁unchanged	-10645
▁unpopular	-10646
▁upholding	-10647
▁Ironically	-10648
▁autonomous	-10649
▁behavioral	-10650
▁capitalize	-10651
▁collection	-10652
▁containing	-10653
▁conviction	-10654
▁destroying	-10655
▁developers	-10656
▁disposable	-10657
▁disturbing	-10658
▁engineered	-10659
▁exceptions	-10660
▁explaining	-10661
▁fulfilling	-10662
▁grievances	-10663
▁insistence	-10664
▁journalism	-10665
▁journalist	-10666
▁kilometers	-10667
▁maximizing	-10668
▁narratives	-10669
▁overlooked	-10670
▁positioned	-10671
▁precarious	-10672
▁psychology	-10673
▁questioned	-10674
▁registered	-10675
▁repressive	-10676
▁restricted	-10677
▁safeguards	-10678
▁sentiments	-10679
▁succession	-10680
▁supportive	-10681
▁wealthiest	-10682
▁adversaries	-10683
▁application	-10684
▁businessmen	-10685
▁conclusions	-10686
▁conferences	-10687
▁contentious	-10688
▁destabilize	-10689
▁differently	-10690
▁discoveries	-10691
▁distinguish	-10692
▁empowerment	-10693
▁forecasting	-10694
▁frustration	-10695
▁humiliation	-10696
▁probability	-10697
▁stimulating	-10698
proliferation	-10699
▁deliberately	-10700
▁domestically	-10701
▁exploitation	-10702
▁subsidiaries	-10703
▁accommodation	-10704
▁complementary	-10705
▁consequential	-10706
▁demonstrating	-10707
▁underestimated	-10708
▁experimentation	-10709
!”	-10710
-6	-10711
Cs	-10712
QE	-10713
SB	-10714
New	-10715
PEC	-10716
ahu	-10717
amm	-10718
awa	-10719
bes	-10720
but	-10721
can	-10722
dis	-10723
ero	-10724
irt	-10725
itz	-10726
ixt	-10727
oha	-10728
pes	-10729
ras	-10730
sub	-10731
uni	-10732
”).	-10733
▁33	-10734
▁36	-10735
▁37	-10736
▁AN	-10737
▁BO	-10738
▁Gü	-10739
▁MP	-10740
▁Pu	-10741
▁Ts	-10742
-198	-10743
Asia	-10744
Brit	-10745
edge	-10746
icit	-10747
icks	-10748
imil	-10749
keep	-10750
lass	-10751
mail	-10752
mare	-10753
ocal	-10754
otal	-10755
ourg	-10756
pace	-10757
seen	-10758
tier	-10759
umer	-10760
zhou	-10761
▁10.	-10762
▁21%	-10763
▁Bay	-10764
▁CIA	-10765
▁Cap	-10766
▁Hig	-10767
▁Hun	-10768
▁Mog	-10769
▁Nav	-10770
▁PLA	-10771
▁Pay	-10772
▁Put	-10773
▁Ste	-10774
▁bed	-10775
▁flu	-10776
▁pin	-10777
▁rot	-10778
▁tit	-10779
▁van	-10780
andhi	-10781
anged	-10782
blown	-10783
board	-10784
chner	-10785
ework	-10786
found	-10787
garet	-10788
group	-10789
iller	-10790
imony	-10791
inist	-10792
itant	-10793
luded	-10794
month	-10795
ostal	-10796
otten	-10797
raham	-10798
smart	-10799
äuble	-10800
▁Adam	-10801
▁Beng	-10802
▁Cauc	-10803
▁Fear	-10804
▁Fisc	-10805
▁Jeff	-10806
▁Kash	-10807
▁MDGs	-10808
▁Ryan	-10809
▁Step	-10810
▁Stig	-10811
▁Time	-10812
▁Zhou	-10813
▁abst	-10814
▁ampl	-10815
▁cush	-10816
▁doom	-10817
▁fier	-10818
▁gene	-10819
▁hack	-10820
▁hike	-10821
▁hing	-10822
▁hire	-10823
▁leap	-10824
▁lest	-10825
▁mast	-10826
▁ride	-10827
▁rock	-10828
▁scre	-10829
▁shed	-10830
▁shin	-10831
▁smok	-10832
▁twin	-10833
▁unve	-10834
▁webs	-10835
anyahu	-10836
esbank	-10837
isters	-10838
ocracy	-10839
oughly	-10840
supply	-10841
usions	-10842
utable	-10843
▁3,000	-10844
▁About	-10845
▁Arabs	-10846
▁Boris	-10847
▁Games	-10848
▁Jiang	-10849
▁Using	-10850
▁array	-10851
▁color	-10852
▁crowd	-10853
▁deple	-10854
▁dirty	-10855
▁drast	-10856
▁drops	-10857
▁enshr	-10858
▁erupt	-10859
▁fires	-10860
▁floor	-10861
▁genes	-10862
▁impul	-10863
▁irony	-10864
▁loose	-10865
▁magic	-10866
▁monet	-10867
▁penet	-10868
▁prone	-10869
▁quasi	-10870
▁sched	-10871
▁scram	-10872
▁ships	-10873
▁sport	-10874
▁stick	-10875
▁store	-10876
▁storm	-10877
▁units	-10878
▁vocal	-10879
fledged	-10880
ignific	-10881
profile	-10882
serving	-10883
▁Balkan	-10884
▁Budget	-10885
▁Crisis	-10886
▁Gandhi	-10887
▁Leader	-10888
▁League	-10889
▁Oxford	-10890
▁abrupt	-10891
▁bacter	-10892
▁banned	-10893
▁cosmop	-10894
▁counts	-10895
▁covert	-10896
▁deduct	-10897
▁deputy	-10898
▁desert	-10899
▁excuse	-10900
▁feared	-10901
▁gotten	-10902
▁meters	-10903
▁noting	-10904
▁plunge	-10905
▁posing	-10906
▁proves	-10907
▁rappro	-10908
▁recons	-10909
▁stages	-10910
▁surrog	-10911
Atlantic	-10912
changing	-10913
▁300,000	-10914
▁College	-10915
▁Fischer	-10916
▁Serbian	-10917
▁Silicon	-10918
▁Snowden	-10919
▁Tibetan	-10920
▁Tobacco	-10921
▁Working	-10922
▁appeals	-10923
▁bearing	-10924
▁biology	-10925
▁bridges	-10926
▁clarity	-10927
▁clashes	-10928
▁curbing	-10929
▁divorce	-10930
▁dubious	-10931
▁durable	-10932
▁embargo	-10933
▁examine	-10934
▁founder	-10935
▁guiding	-10936
▁helicop	-10937
▁ignores	-10938
▁illness	-10939
▁literal	-10940
▁located	-10941
▁methane	-10942
▁monthly	-10943
▁motives	-10944
▁optimal	-10945
▁passage	-10946
▁physics	-10947
▁pledges	-10948
▁portion	-10949
▁prestig	-10950
▁renewal	-10951
▁replied	-10952
▁revived	-10953
▁rewards	-10954
▁staying	-10955
▁strange	-10956
▁subdued	-10957
▁tipping	-10958
▁unavoid	-10959
▁verdict	-10960
President	-10961
democracy	-10962
dominated	-10963
prisingly	-10964
reduction	-10965
▁Austrian	-10966
▁Catholic	-10967
▁Dialogue	-10968
▁Margaret	-10969
▁Regional	-10970
▁Schäuble	-10971
▁Slovakia	-10972
▁Southern	-10973
▁Stiglitz	-10974
▁Tanzania	-10975
▁contempt	-10976
▁convened	-10977
▁deserves	-10978
▁engineer	-10979
▁enjoying	-10980
▁exported	-10981
▁farmland	-10982
▁improves	-10983
▁maneuver	-10984
▁memories	-10985
▁minerals	-10986
▁moreover	-10987
▁officers	-10988
▁plastics	-10989
▁preceded	-10990
▁protects	-10991
▁protocol	-10992
▁reassure	-10993
▁teaching	-10994
▁thousand	-10995
generation	-10996
▁Executive	-10997
▁Framework	-10998
▁Netanyahu	-10999
▁Tiananmen	-11000
▁allocated	-11001
▁amounting	-11002
▁avoidance	-11003
▁channeled	-11004
▁collected	-11005
▁comprises	-11006
▁disparate	-11007
▁empirical	-11008
▁epidemics	-11009
▁evidently	-11010
▁exploited	-11011
▁geography	-11012
▁hegemonic	-11013
▁inherited	-11014
▁injustice	-11015
▁lifestyle	-11016
▁mentioned	-11017
▁misguided	-11018
▁pipelines	-11019
▁privately	-11020
▁rationale	-11021
▁rebalance	-11022
▁routinely	-11023
▁scheduled	-11024
▁scientist	-11025
▁sidelines	-11026
▁socialism	-11027
▁stalemate	-11028
▁struggled	-11029
▁underpins	-11030
▁wholesale	-11031
▁algorithms	-11032
▁anticipate	-11033
▁compliance	-11034
▁courageous	-11035
▁disclosure	-11036
▁disconnect	-11037
▁distribute	-11038
▁homeowners	-11039
▁indirectly	-11040
▁misleading	-11041
▁ostensibly	-11042
▁overcoming	-11043
▁trilateral	-11044
productivity	-11045
▁Politicians	-11046
▁concessions	-11047
▁conflicting	-11048
▁depreciated	-11049
▁derivatives	-11050
▁distinction	-11051
▁identifying	-11052
▁macroeconom	-11053
▁philanthrop	-11054
▁signatories	-11055
▁superiority	-11056
▁displacement	-11057
▁disadvantaged	-11058
▁externalities	-11059
▁intellectuals	-11060
▁nationalistic	-11061
▁rapprochement	-11062
▁repercussions	-11063
▁capitalization	-11064
▁disinformation	-11065
▁systematically	-11066
11	-11067
21	-11068
EF	-11069
GB	-11070
RF	-11071
Vs	-11072
iñ	-11073
ta	-11074
uy	-11075
wa	-11076
One	-11077
You	-11078
ais	-11079
blo	-11080
kew	-11081
lan	-11082
mir	-11083
ora	-11084
ota	-11085
pre	-11086
rah	-11087
wei	-11088
xis	-11089
▁Bi	-11090
▁Du	-11091
▁Ko	-11092
▁Ol	-11093
▁Sa	-11094
▁ho	-11095
▁ze	-11096
....	-11097
SOEs	-11098
aine	-11099
airo	-11100
asus	-11101
fake	-11102
fire	-11103
from	-11104
igil	-11105
inav	-11106
iors	-11107
laim	-11108
loom	-11109
nest	-11110
olly	-11111
orry	-11112
oung	-11113
rick	-11114
rock	-11115
sett	-11116
wood	-11117
▁($6	-11118
▁2%.	-11119
▁38%	-11120
▁95%	-11121
▁CPC	-11122
▁Dam	-11123
▁Ecu	-11124
▁Liu	-11125
▁Low	-11126
▁Pat	-11127
▁Rio	-11128
▁asp	-11129
▁ath	-11130
▁etc	-11131
▁fat	-11132
▁hem	-11133
▁lev	-11134
▁lik	-11135
▁pes	-11136
▁rav	-11137
▁sle	-11138
▁tie	-11139
Frank	-11140
Islam	-11141
arted	-11142
attle	-11143
chest	-11144
ellen	-11145
eneva	-11146
esity	-11147
oline	-11148
orted	-11149
ousse	-11150
polar	-11151
ppled	-11152
ringe	-11153
roots	-11154
ucker	-11155
ukuni	-11156
urate	-11157
ureau	-11158
urity	-11159
▁$600	-11160
▁1920	-11161
▁CEOs	-11162
▁Crit	-11163
▁Dodd	-11164
▁Does	-11165
▁Doha	-11166
▁FOMC	-11167
▁José	-11168
▁Jour	-11169
▁Mike	-11170
▁Nord	-11171
▁Pric	-11172
▁SMEs	-11173
▁Stat	-11174
▁Stra	-11175
▁Zeal	-11176
▁aren	-11177
▁aven	-11178
▁baby	-11179
▁clar	-11180
▁elig	-11181
▁fled	-11182
▁hurd	-11183
▁issu	-11184
▁laud	-11185
▁lens	-11186
▁ling	-11187
▁merc	-11188
▁nets	-11189
▁nurs	-11190
▁puzz	-11191
▁quit	-11192
▁sway	-11193
▁tang	-11194
▁tank	-11195
▁woes	-11196
Russia	-11197
acious	-11198
anches	-11199
ascent	-11200
cribed	-11201
eville	-11202
former	-11203
herini	-11204
houses	-11205
ilding	-11206
school	-11207
ubborn	-11208
ulture	-11209
uminum	-11210
▁1998,	-11211
▁1999,	-11212
▁2,000	-11213
▁Analy	-11214
▁Anglo	-11215
▁Biden	-11216
▁Daily	-11217
▁Holoc	-11218
▁Larry	-11219
▁Peter	-11220
▁Renzi	-11221
▁Scand	-11222
▁Smith	-11223
▁Super	-11224
▁alert	-11225
▁arrog	-11226
▁aston	-11227
▁beaut	-11228
▁burge	-11229
▁clust	-11230
▁colon	-11231
▁conse	-11232
▁disen	-11233
▁feels	-11234
▁fruit	-11235
▁greed	-11236
▁guess	-11237
▁lands	-11238
▁proxy	-11239
▁shake	-11240
▁shoot	-11241
▁swept	-11242
▁tyran	-11243
▁usher	-11244
athetic	-11245
attered	-11246
finance	-11247
locking	-11248
manship	-11249
ourcing	-11250
riminal	-11251
▁Bureau	-11252
▁Empire	-11253
▁Future	-11254
▁Modern	-11255
▁Yellen	-11256
▁affirm	-11257
▁anyway	-11258
▁boards	-11259
▁deadly	-11260
▁demise	-11261
▁dreams	-11262
▁enters	-11263
▁forged	-11264
▁incite	-11265
▁lacked	-11266
▁lasted	-11267
▁listed	-11268
▁locked	-11269
▁mental	-11270
▁nostal	-11271
▁orders	-11272
▁peaked	-11273
▁pollut	-11274
▁safely	-11275
▁seized	-11276
▁subtle	-11277
▁swings	-11278
▁timing	-11279
▁tribal	-11280
▁wouldn	-11281
▁writes	-11282
colonial	-11283
determin	-11284
icularly	-11285
ourished	-11286
payments	-11287
▁Armenia	-11288
▁Bolivia	-11289
▁Current	-11290
▁History	-11291
▁Journal	-11292
▁Mohamed	-11293
▁Qaddafi	-11294
▁Similar	-11295
▁Zealand	-11296
▁anytime	-11297
▁appease	-11298
▁arrival	-11299
▁bargain	-11300
▁clearer	-11301
▁deceler	-11302
▁earning	-11303
▁employs	-11304
▁essence	-11305
▁hardest	-11306
▁holders	-11307
▁inspire	-11308
▁intends	-11309
▁jointly	-11310
▁locally	-11311
▁manager	-11312
▁miracle	-11313
▁passing	-11314
▁passion	-11315
▁precise	-11316
▁prerequ	-11317
▁profile	-11318
▁prostit	-11319
▁publish	-11320
▁realism	-11321
▁refuses	-11322
▁removal	-11323
▁revised	-11324
▁roadmap	-11325
▁spreads	-11326
▁studied	-11327
▁subsidy	-11328
▁suicide	-11329
▁summits	-11330
▁symptom	-11331
▁unclear	-11332
▁undergo	-11333
▁weakens	-11334
communist	-11335
itization	-11336
olidarity	-11337
▁Caucasus	-11338
▁Friedman	-11339
▁Interest	-11340
▁Yasukuni	-11341
▁activism	-11342
▁airlines	-11343
▁airports	-11344
▁aluminum	-11345
▁capitals	-11346
▁cautious	-11347
▁centered	-11348
▁confined	-11349
▁contempl	-11350
▁district	-11351
▁divisive	-11352
▁embarked	-11353
▁floating	-11354
▁flooding	-11355
▁gasoline	-11356
▁imminent	-11357
▁importer	-11358
▁invented	-11359
▁literacy	-11360
▁lobbying	-11361
▁mistaken	-11362
▁obtained	-11363
▁occupied	-11364
▁organize	-11365
▁outlined	-11366
▁outweigh	-11367
▁prevents	-11368
▁sometime	-11369
▁strictly	-11370
▁survived	-11371
▁sympathy	-11372
▁symptoms	-11373
▁tolerate	-11374
▁traveled	-11375
▁unveiled	-11376
▁vitality	-11377
▁warnings	-11378
ifications	-11379
▁Migration	-11380
▁Mogherini	-11381
▁Scandinav	-11382
▁automated	-11383
▁blueprint	-11384
▁capturing	-11385
▁computing	-11386
▁criminals	-11387
▁describes	-11388
▁dismissed	-11389
▁documents	-11390
▁exporting	-11391
▁lawmakers	-11392
▁neglected	-11393
▁orthodoxy	-11394
▁penalties	-11395
▁pervasive	-11396
▁portfolio	-11397
▁proactive	-11398
▁reversing	-11399
▁witnessed	-11400
▁worsening	-11401
engineering	-11402
▁Liberation	-11403
▁Management	-11404
▁annexation	-11405
▁burgeoning	-11406
▁calculated	-11407
▁championed	-11408
▁compounded	-11409
▁diagnostic	-11410
▁domination	-11411
▁enthusiast	-11412
▁friendship	-11413
▁leveraging	-11414
▁mitigating	-11415
▁prioritize	-11416
▁pronounced	-11417
▁reasonably	-11418
▁reassuring	-11419
▁rebuilding	-11420
▁relentless	-11421
▁separation	-11422
▁shortfalls	-11423
▁systematic	-11424
▁unresolved	-11425
▁witnessing	-11426
▁allegations	-11427
▁complacency	-11428
▁conditional	-11429
▁determinant	-11430
▁elimination	-11431
▁entitlement	-11432
▁experiments	-11433
▁imagination	-11434
▁implication	-11435
▁inhabitants	-11436
▁modernizing	-11437
▁overarching	-11438
▁projections	-11439
▁prosecutors	-11440
▁replacement	-11441
▁substantive	-11442
▁trafficking	-11443
▁understands	-11444
▁undervalued	-11445
▁withdrawing	-11446
▁accomplished	-11447
▁declarations	-11448
▁geographical	-11449
▁highlighting	-11450
▁indifference	-11451
▁liberalizing	-11452
▁longstanding	-11453
▁automatically	-11454
▁investigation	-11455
▁underestimate	-11456
▁democratically	-11457
▁identification	-11458
▁transformative	-11459
BM	-11460
ET	-11461
FA	-11462
GF	-11463
GH	-11464
MU	-11465
No	-11466
Sh	-11467
iy	-11468
ka	-11469
ki	-11470
”?	-11471
6%,	-11472
ISA	-11473
ara	-11474
cep	-11475
iah	-11476
inh	-11477
iph	-11478
oil	-11479
san	-11480
yip	-11481
▁32	-11482
▁Av	-11483
▁Ay	-11484
▁Hy	-11485
▁VI	-11486
AGEN	-11487
ESCO	-11488
arde	-11489
asse	-11490
atah	-11491
aved	-11492
avor	-11493
eded	-11494
emin	-11495
erto	-11496
etts	-11497
exas	-11498
fair	-11499
feld	-11500
flow	-11501
gang	-11502
harm	-11503
igue	-11504
ilty	-11505
link	-11506
open	-11507
rior	-11508
yles	-11509
▁$15	-11510
▁$4.	-11511
▁AKP	-11512
▁App	-11513
▁Dom	-11514
▁FBI	-11515
▁Gam	-11516
▁Hos	-11517
▁Hug	-11518
▁Hur	-11519
▁Ice	-11520
▁Jer	-11521
▁Lux	-11522
▁MGI	-11523
▁Mek	-11524
▁Pik	-11525
▁Rod	-11526
▁Tar	-11527
▁Val	-11528
▁bin	-11529
▁bus	-11530
▁fel	-11531
▁lov	-11532
▁nan	-11533
▁oxy	-11534
▁sin	-11535
▁ven	-11536
-2015	-11537
Asian	-11538
andom	-11539
arraf	-11540
cycle	-11541
erian	-11542
field	-11543
icked	-11544
osite	-11545
popul	-11546
pture	-11547
skill	-11548
spons	-11549
trary	-11550
ungry	-11551
urban	-11552
▁$300	-11553
▁$800	-11554
▁1940	-11555
▁1996	-11556
▁1999	-11557
▁2.5%	-11558
▁Canc	-11559
▁Dise	-11560
▁Karl	-11561
▁Mahm	-11562
▁Nich	-11563
▁Poll	-11564
▁Pope	-11565
▁axis	-11566
▁band	-11567
▁bump	-11568
▁cure	-11569
▁forb	-11570
▁gear	-11571
▁gift	-11572
▁hubs	-11573
▁maln	-11574
▁mudd	-11575
▁neol	-11576
▁nerv	-11577
▁olig	-11578
▁poet	-11579
▁ruth	-11580
▁soci	-11581
▁synt	-11582
▁tone	-11583
▁vind	-11584
▁visa	-11585
asting	-11586
cutive	-11587
enable	-11588
ensity	-11589
ighbor	-11590
inable	-11591
irates	-11592
middle	-11593
orical	-11594
reason	-11595
retion	-11596
roatia	-11597
target	-11598
ulsion	-11599
unting	-11600
▁1979,	-11601
▁1991,	-11602
▁1992,	-11603
▁2000.	-11604
▁Dalai	-11605
▁Delhi	-11606
▁Dubai	-11607
▁Fatah	-11608
▁Gülen	-11609
▁Haiti	-11610
▁Joint	-11611
▁Mayor	-11612
▁Recep	-11613
▁Techn	-11614
▁appet	-11615
▁arena	-11616
▁booms	-11617
▁borne	-11618
▁disse	-11619
▁dwell	-11620
▁empty	-11621
▁essay	-11622
▁exert	-11623
▁exped	-11624
▁fever	-11625
▁ghost	-11626
▁intim	-11627
▁label	-11628
▁panel	-11629
▁pecul	-11630
▁peers	-11631
▁posts	-11632
▁repud	-11633
▁scarc	-11634
▁score	-11635
▁unrel	-11636
▁vigil	-11637
▁vowed	-11638
enabled	-11639
itizens	-11640
▁20,000	-11641
▁Bernie	-11642
▁Carter	-11643
▁Confuc	-11644
▁Edward	-11645
▁Fiscal	-11646
▁Gaulle	-11647
▁Geneva	-11648
▁Plenum	-11649
▁Puerto	-11650
▁Rousse	-11651
▁Tayyip	-11652
▁UNESCO	-11653
▁assass	-11654
▁attest	-11655
▁autumn	-11656
▁bribes	-11657
▁commem	-11658
▁conced	-11659
▁copper	-11660
▁crunch	-11661
▁doctor	-11662
▁drones	-11663
▁errors	-11664
▁fierce	-11665
▁gamble	-11666
▁guilty	-11667
▁handed	-11668
▁hoping	-11669
▁hosted	-11670
▁illust	-11671
▁jumped	-11672
▁landsl	-11673
▁merits	-11674
▁native	-11675
▁oldest	-11676
▁overst	-11677
▁potent	-11678
▁prejud	-11679
▁reserv	-11680
▁speaks	-11681
▁spoken	-11682
▁sports	-11683
▁surged	-11684
▁timely	-11685
▁trades	-11686
▁urging	-11687
▁writer	-11688
icrobial	-11689
intended	-11690
lessness	-11691
olerance	-11692
usharraf	-11693
▁Albania	-11694
▁Ecuador	-11695
▁Equally	-11696
▁Meeting	-11697
▁Network	-11698
▁Piketty	-11699
▁Poverty	-11700
▁Pradesh	-11701
▁Service	-11702
▁Studies	-11703
▁Support	-11704
▁analyze	-11705
▁barrier	-11706
▁charism	-11707
▁coexist	-11708
▁crossed	-11709
▁culprit	-11710
▁discern	-11711
▁disturb	-11712
▁elusive	-11713
▁embassy	-11714
▁episode	-11715
▁footing	-11716
▁futures	-11717
▁illicit	-11718
▁imposes	-11719
▁install	-11720
▁intract	-11721
▁manages	-11722
▁obesity	-11723
▁origins	-11724
▁outward	-11725
▁picking	-11726
▁plagued	-11727
▁recruit	-11728
▁reminds	-11729
▁secured	-11730
▁separat	-11731
▁shorter	-11732
▁totaled	-11733
▁trapped	-11734
▁tripled	-11735
▁vitally	-11736
▁widened	-11737
izational	-11738
▁Building	-11739
▁Contrary	-11740
▁Eurozone	-11741
▁Kirchner	-11742
▁Progress	-11743
▁applying	-11744
▁asserted	-11745
▁brighter	-11746
▁catalyst	-11747
▁catalyze	-11748
▁catching	-11749
▁clusters	-11750
▁comments	-11751
▁concepts	-11752
▁consumed	-11753
▁contains	-11754
▁deadline	-11755
▁defaults	-11756
▁drinking	-11757
▁executed	-11758
▁favoring	-11759
▁genocide	-11760
▁intellig	-11761
▁maternal	-11762
▁narrowly	-11763
▁outdated	-11764
▁printing	-11765
▁provoked	-11766
▁shopping	-11767
▁spectrum	-11768
▁stubborn	-11769
▁supplier	-11770
▁tailored	-11771
▁uniquely	-11772
▁uprising	-11773
▁visiting	-11774
▁wherever	-11775
▁Egyptians	-11776
▁Obviously	-11777
▁Princeton	-11778
▁analytics	-11779
▁attacking	-11780
▁budgetary	-11781
▁civilized	-11782
▁classical	-11783
▁forgotten	-11784
▁governors	-11785
▁imperfect	-11786
▁inflicted	-11787
▁lingering	-11788
▁millennia	-11789
▁plummeted	-11790
▁polarized	-11791
▁portrayed	-11792
▁preceding	-11793
▁privilege	-11794
▁processed	-11795
▁qualified	-11796
▁referenda	-11797
▁regulator	-11798
▁statehood	-11799
▁subsidize	-11800
▁undergone	-11801
▁withdrawn	-11802
▁withstand	-11803
▁Bundesbank	-11804
▁Resolution	-11805
▁accordance	-11806
▁accurately	-11807
▁constantly	-11808
▁curriculum	-11809
▁discretion	-11810
▁distressed	-11811
▁divergence	-11812
▁escalation	-11813
▁exploiting	-11814
▁fertilizer	-11815
▁harassment	-11816
▁historians	-11817
▁inherently	-11818
▁jeopardize	-11819
▁ministries	-11820
▁neoliberal	-11821
▁nomination	-11822
▁positively	-11823
▁powerhouse	-11824
▁regulating	-11825
▁reiterated	-11826
▁responsive	-11827
▁vigorously	-11828
construction	-11829
▁advancement	-11830
▁communicate	-11831
▁consecutive	-11832
▁countryside	-11833
▁integrating	-11834
▁ministerial	-11835
▁overheating	-11836
▁persecution	-11837
▁personality	-11838
▁preoccupied	-11839
▁prohibition	-11840
▁proposition	-11841
▁shareholder	-11842
▁unavoidable	-11843
▁unrealistic	-11844
▁compromising	-11845
▁cosmopolitan	-11846
▁deteriorated	-11847
▁metropolitan	-11848
▁simultaneous	-11849
▁systemically	-11850
▁totalitarian	-11851
▁demonstration	-11852
▁attractiveness	-11853
▁multinationals	-11854
▁redistribution	-11855
▁representation	-11856
-5	-11857
ID	-11858
RA	-11859
SF	-11860
da	-11861
fl	-11862
ti	-11863
3%,	-11864
ENH	-11865
HOL	-11866
aur	-11867
awn	-11868
bus	-11869
exp	-11870
hua	-11871
ida	-11872
non	-11873
oty	-11874
rik	-11875
rov	-11876
rup	-11877
two	-11878
ube	-11879
uls	-11880
usp	-11881
vio	-11882
voc	-11883
zai	-11884
▁45	-11885
▁6,	-11886
▁8,	-11887
▁Dr	-11888
▁Fl	-11889
▁om	-11890
What	-11891
acon	-11892
alog	-11893
apid	-11894
arct	-11895
bons	-11896
buro	-11897
clos	-11898
comp	-11899
eder	-11900
emia	-11901
epid	-11902
happ	-11903
irac	-11904
ocke	-11905
omic	-11906
play	-11907
qing	-11908
rban	-11909
riad	-11910
role	-11911
roso	-11912
take	-11913
uits	-11914
unta	-11915
▁($3	-11916
▁1.7	-11917
▁1.8	-11918
▁22%	-11919
▁42%	-11920
▁44%	-11921
▁5%,	-11922
▁Aid	-11923
▁Ale	-11924
▁Bon	-11925
▁Bot	-11926
▁EPP	-11927
▁Has	-11928
▁Jac	-11929
▁Met	-11930
▁ODA	-11931
▁Tea	-11932
▁Wal	-11933
▁eat	-11934
▁geo	-11935
▁hus	-11936
▁nic	-11937
▁opa	-11938
▁rum	-11939
▁tab	-11940
▁til	-11941
▁ton	-11942
▁ves	-11943
Great	-11944
India	-11945
achev	-11946
achus	-11947
agine	-11948
angel	-11949
apped	-11950
appro	-11951
asure	-11952
athan	-11953
built	-11954
chers	-11955
cture	-11956
eches	-11957
eding	-11958
heres	-11959
heric	-11960
iably	-11961
iform	-11962
orbyn	-11963
perty	-11964
produ	-11965
rates	-11966
space	-11967
yield	-11968
▁$200	-11969
▁$700	-11970
▁1994	-11971
▁Dani	-11972
▁Deep	-11973
▁Gorb	-11974
▁Lama	-11975
▁Land	-11976
▁Mikh	-11977
▁PISA	-11978
▁Prop	-11979
▁Rica	-11980
▁Rums	-11981
▁STAN	-11982
▁Star	-11983
▁Trad	-11984
▁arts	-11985
▁blue	-11986
▁boys	-11987
▁cert	-11988
▁chol	-11989
▁damp	-11990
▁egal	-11991
▁emit	-11992
▁fits	-11993
▁fren	-11994
▁hasn	-11995
▁lags	-11996
▁leis	-11997
▁medd	-11998
▁omin	-11999
▁outp	-12000
▁salv	-12001
▁samp	-12002
▁shel	-12003
▁sick	-12004
▁spin	-12005
▁warn	-12006
buying	-12007
charge	-12008
decade	-12009
ewater	-12010
hengen	-12011
igrate	-12012
letion	-12013
licate	-12014
lywood	-12015
ranted	-12016
rapped	-12017
return	-12018
ricane	-12019
ridden	-12020
risome	-12021
seless	-12022
strong	-12023
▁1950’	-12024
▁1973,	-12025
▁1980,	-12026
▁1994,	-12027
▁2025,	-12028
▁Annan	-12029
▁Bache	-12030
▁Child	-12031
▁Congo	-12032
▁Cypri	-12033
▁Labor	-12034
▁Moham	-12035
▁Money	-12036
▁Nazis	-12037
▁Stand	-12038
▁Start	-12039
▁Stern	-12040
▁Texas	-12041
▁Uzbek	-12042
▁aided	-12043
▁ambig	-12044
▁bleak	-12045
▁blocs	-12046
▁cloud	-12047
▁crony	-12048
▁dread	-12049
▁email	-12050
▁encom	-12051
▁erect	-12052
▁fired	-12053
▁homog	-12054
▁ignor	-12055
▁incap	-12056
▁judge	-12057
▁junta	-12058
▁lofty	-12059
▁maybe	-12060
▁memor	-12061
▁metap	-12062
▁misal	-12063
▁named	-12064
▁overe	-12065
▁reval	-12066
▁shore	-12067
▁slack	-12068
▁steam	-12069
▁stuff	-12070
▁swaps	-12071
▁tenth	-12072
▁tepid	-12073
▁trees	-12074
ENHAGEN	-12075
achment	-12076
cending	-12077
elected	-12078
emption	-12079
ortions	-12080
raining	-12081
ringing	-12082
ristina	-12083
service	-12084
weapons	-12085
welfare	-12086
▁Andrew	-12087
▁Bhutan	-12088
▁Chirac	-12089
▁Compet	-12090
▁Corbyn	-12091
▁Direct	-12092
▁Forces	-12093
▁Mekong	-12094
▁Morgan	-12095
▁Nature	-12096
▁Silvio	-12097
▁Single	-12098
▁Thirty	-12099
▁admire	-12100
▁batter	-12101
▁bosses	-12102
▁breast	-12103
▁burned	-12104
▁buyers	-12105
▁bypass	-12106
▁debtor	-12107
▁deport	-12108
▁devote	-12109
▁dubbed	-12110
▁duties	-12111
▁enjoys	-12112
▁finger	-12113
▁firing	-12114
▁forums	-12115
▁freeze	-12116
▁fright	-12117
▁fruits	-12118
▁genome	-12119
▁hiring	-12120
▁houses	-12121
▁humili	-12122
▁insult	-12123
▁loosen	-12124
▁masses	-12125
▁milest	-12126
▁muscle	-12127
▁myriad	-12128
▁occupy	-12129
▁papers	-12130
▁praise	-12131
▁pulled	-12132
▁quotas	-12133
▁random	-12134
▁regret	-12135
▁resume	-12136
▁scaled	-12137
▁scores	-12138
▁sensit	-12139
▁steril	-12140
▁string	-12141
▁talked	-12142
▁tended	-12143
▁tragic	-12144
▁trials	-12145
▁unimag	-12146
▁virtue	-12147
▁wisely	-12148
directed	-12149
educated	-12150
ensurate	-12151
itigroup	-12152
location	-12153
majority	-12154
▁Antarct	-12155
▁Barroso	-12156
▁Belgium	-12157
▁Control	-12158
▁Croatia	-12159
▁Lagarde	-12160
▁Liberia	-12161
▁Mahmoud	-12162
▁Mikhail	-12163
▁Outlook	-12164
▁Private	-12165
▁Speaker	-12166
▁Swedish	-12167
▁beating	-12168
▁betting	-12169
▁cigaret	-12170
▁compass	-12171
▁contend	-12172
▁counsel	-12173
▁emperor	-12174
▁heading	-12175
▁hearing	-12176
▁hitting	-12177
▁hopeful	-12178
▁hosting	-12179
▁impacts	-12180
▁leftist	-12181
▁logical	-12182
▁loyalty	-12183
▁morning	-12184
▁mothers	-12185
▁nascent	-12186
▁nervous	-12187
▁offense	-12188
▁oversee	-12189
▁persons	-12190
▁pursues	-12191
▁quietly	-12192
▁rampant	-12193
▁retired	-12194
▁riskier	-12195
▁signing	-12196
▁sitting	-12197
▁squeeze	-12198
▁tightly	-12199
▁traffic	-12200
▁violate	-12201
▁volumes	-12202
achusetts	-12203
icultural	-12204
president	-12205
stability	-12206
valuation	-12207
▁Bachelet	-12208
▁Creating	-12209
▁Medicare	-12210
▁Nicholas	-12211
▁Rumsfeld	-12212
▁STANFORD	-12213
▁Schengen	-12214
▁Services	-12215
▁Wolfgang	-12216
▁airspace	-12217
▁appetite	-12218
▁attacked	-12219
▁branches	-12220
▁disclose	-12221
▁dissemin	-12222
▁emission	-12223
▁enforced	-12224
▁examined	-12225
▁flourish	-12226
▁formerly	-12227
▁impunity	-12228
▁incompet	-12229
▁innocent	-12230
▁instruct	-12231
▁landmark	-12232
▁punished	-12233
▁receives	-12234
▁relating	-12235
▁reminded	-12236
▁resemble	-12237
▁scandals	-12238
▁speeches	-12239
▁sterling	-12240
▁subprime	-12241
▁totaling	-12242
▁ventures	-12243
imicrobial	-12244
ranational	-12245
▁Achieving	-12246
▁Christmas	-12247
▁Communism	-12248
▁Gorbachev	-12249
▁Hungarian	-12250
▁Politburo	-12251
▁Socialist	-12252
▁Strategic	-12253
▁basically	-12254
▁brutality	-12255
▁defensive	-12256
▁deterrent	-12257
▁dominates	-12258
▁embarrass	-12259
▁eradicate	-12260
▁frequency	-12261
▁infection	-12262
▁liberties	-12263
▁literally	-12264
▁logistics	-12265
▁militants	-12266
▁modernity	-12267
▁necessity	-12268
▁nightmare	-12269
▁purchased	-12270
▁rejecting	-12271
▁resisting	-12272
▁screening	-12273
▁somewhere	-12274
▁testimony	-12275
▁worrisome	-12276
Palestinian	-12277
competitive	-12278
▁COPENHAGEN	-12279
▁Securities	-12280
▁Structural	-12281
▁automobile	-12282
▁campaigned	-12283
▁chancellor	-12284
▁conception	-12285
▁constraint	-12286
▁discussing	-12287
▁eighteenth	-12288
▁enormously	-12289
▁functional	-12290
▁geographic	-12291
▁imposition	-12292
▁lifestyles	-12293
▁offsetting	-12294
▁organizing	-12295
▁prediction	-12296
▁protracted	-12297
▁reconsider	-12298
▁remarkably	-12299
▁resurgence	-12300
▁successive	-12301
▁undergoing	-12302
▁worthwhile	-12303
particularly	-12304
▁Agriculture	-12305
▁Environment	-12306
▁Information	-12307
▁bondholders	-12308
▁controversy	-12309
▁disappeared	-12310
▁egalitarian	-12311
▁eradication	-12312
▁illustrates	-12313
▁orientation	-12314
▁outstanding	-12315
▁realization	-12316
▁recommended	-12317
▁resignation	-12318
▁revelations	-12319
▁stakeholder	-12320
▁vaccination	-12321
Proliferation	-12322
▁accumulating	-12323
▁calculations	-12324
▁commensurate	-12325
▁constructing	-12326
▁devaluations	-12327
▁differential	-12328
▁disadvantage	-12329
▁experimental	-12330
▁manipulating	-12331
▁technocratic	-12332
▁tuberculosis	-12333
▁Massachusetts	-12334
▁beneficiaries	-12335
▁harmonization	-12336
▁jurisdictions	-12337
▁mutualization	-12338
▁reunification	-12339
▁constituencies	-12340
▁predictability	-12341
16	-12342
88	-12343
CK	-12344
DF	-12345
NI	-12346
”.	-12347
ato	-12348
bre	-12349
bro	-12350
chi	-12351
dam	-12352
ede	-12353
hol	-12354
iat	-12355
ims	-12356
ioc	-12357
jin	-12358
mut	-12359
oft	-12360
oko	-12361
ows	-12362
ura	-12363
uts	-12364
”),	-12365
▁75	-12366
▁IS	-12367
▁IT	-12368
▁Il	-12369
▁Ku	-12370
▁NP	-12371
▁ri	-12372
▁€3	-12373
Arab	-12374
ELAC	-12375
HOLM	-12376
PBOC	-12377
TOCK	-12378
aire	-12379
airy	-12380
aned	-12381
axon	-12382
elts	-12383
etes	-12384
fast	-12385
gian	-12386
idal	-12387
iece	-12388
ifty	-12389
inis	-12390
iqué	-12391
main	-12392
mese	-12393
obil	-12394
onic	-12395
risy	-12396
rome	-12397
sche	-12398
sect	-12399
ugos	-12400
wess	-12401
▁-0.	-12402
▁1%.	-12403
▁12.	-12404
▁187	-12405
▁19%	-12406
▁3.5	-12407
▁BOJ	-12408
▁EMU	-12409
▁ESG	-12410
▁GNP	-12411
▁Gen	-12412
▁Hay	-12413
▁Ide	-12414
▁Imm	-12415
▁KGB	-12416
▁Kur	-12417
▁Kyr	-12418
▁MPs	-12419
▁Pew	-12420
▁Rob	-12421
▁Rog	-12422
▁Sad	-12423
▁Sin	-12424
▁USS	-12425
▁Vot	-12426
▁alc	-12427
▁cra	-12428
▁fur	-12429
▁gig	-12430
▁ice	-12431
▁luc	-12432
▁owe	-12433
▁rid	-12434
▁upd	-12435
,000.	-12436
-1945	-12437
antil	-12438
cribe	-12439
earth	-12440
elior	-12441
eller	-12442
orous	-12443
ouble	-12444
raged	-12445
rance	-12446
range	-12447
rians	-12448
swana	-12449
track	-12450
venia	-12451
▁$2.5	-12452
▁10%,	-12453
▁10%.	-12454
▁10-1	-12455
▁50%.	-12456
▁Anti	-12457
▁Aung	-12458
▁Care	-12459
▁Case	-12460
▁Cast	-12461
▁Clos	-12462
▁Data	-12463
▁Drug	-12464
▁Fern	-12465
▁Indo	-12466
▁Lith	-12467
▁Uber	-12468
▁apes	-12469
▁balk	-12470
▁bans	-12471
▁bets	-12472
▁boon	-12473
▁butt	-12474
▁clim	-12475
▁cycl	-12476
▁diab	-12477
▁gest	-12478
▁glim	-12479
▁grab	-12480
▁intu	-12481
▁obsc	-12482
▁rall	-12483
▁song	-12484
▁stew	-12485
▁synd	-12486
▁tear	-12487
▁tree	-12488
▁unch	-12489
▁user	-12490
Muslim	-12491
asions	-12492
atural	-12493
awatts	-12494
erated	-12495
iaspor	-12496
ieties	-12497
irming	-12498
liners	-12499
linked	-12500
ocused	-12501
oupled	-12502
ourced	-12503
perial	-12504
rators	-12505
roleum	-12506
▁1997.	-12507
▁Abdel	-12508
▁Cuban	-12509
▁Early	-12510
▁Event	-12511
▁Faced	-12512
▁Guant	-12513
▁Hosni	-12514
▁Jimmy	-12515
▁STOCK	-12516
▁Trust	-12517
▁Wales	-12518
▁Young	-12519
▁audit	-12520
▁brave	-12521
▁bread	-12522
▁brill	-12523
▁calam	-12524
▁clock	-12525
▁dealt	-12526
▁disgu	-12527
▁draws	-12528
▁drift	-12529
▁fatal	-12530
▁foods	-12531
▁highs	-12532
▁inapp	-12533
▁infer	-12534
▁movie	-12535
▁pages	-12536
▁pilot	-12537
▁plate	-12538
▁plent	-12539
▁realm	-12540
▁reson	-12541
▁slows	-12542
▁smugg	-12543
▁stamp	-12544
▁stone	-12545
▁stric	-12546
▁swath	-12547
▁tumor	-12548
▁verge	-12549
▁visas	-12550
▁vivid	-12551
British	-12552
billion	-12553
carbons	-12554
conserv	-12555
defined	-12556
embourg	-12557
foreign	-12558
ignment	-12559
imposed	-12560
iration	-12561
istence	-12562
million	-12563
ongqing	-12564
pocrisy	-12565
politik	-12566
sighted	-12567
ugoslav	-12568
ustomed	-12569
▁50,000	-12570
▁Anyone	-12571
▁Ashton	-12572
▁Establ	-12573
▁Karzai	-12574
▁Refuge	-12575
▁Things	-12576
▁Voters	-12577
▁absurd	-12578
▁analog	-12579
▁apolog	-12580
▁arrive	-12581
▁banker	-12582
▁bloods	-12583
▁boasts	-12584
▁branch	-12585
▁coined	-12586
▁convey	-12587
▁covers	-12588
▁embold	-12589
▁endang	-12590
▁enrich	-12591
▁filled	-12592
▁flying	-12593
▁insure	-12594
▁lesser	-12595
▁miscon	-12596
▁myself	-12597
▁nobody	-12598
▁opaque	-12599
▁outset	-12600
▁pestic	-12601
▁picked	-12602
▁posted	-12603
▁promin	-12604
▁racism	-12605
▁racist	-12606
▁recapt	-12607
▁squand	-12608
▁submit	-12609
▁suited	-12610
▁termin	-12611
▁topics	-12612
▁unsett	-12613
▁wounds	-12614
▁yellow	-12615
berspace	-12616
entially	-12617
ittances	-12618
queville	-12619
resource	-12620
whatever	-12621
▁Burmese	-12622
▁Iceland	-12623
▁Imagine	-12624
▁Lithuan	-12625
▁amelior	-12626
▁bipolar	-12627
▁cancers	-12628
▁clients	-12629
▁convene	-12630
▁counted	-12631
▁credits	-12632
▁cushion	-12633
▁debated	-12634
▁devised	-12635
▁endured	-12636
▁escaped	-12637
▁fallout	-12638
▁formula	-12639
▁fortune	-12640
▁handled	-12641
▁heating	-12642
▁horrors	-12643
▁injured	-12644
▁intimid	-12645
▁intrins	-12646
▁invaded	-12647
▁leisure	-12648
▁matched	-12649
▁moments	-12650
▁offices	-12651
▁outlays	-12652
▁overdue	-12653
▁plunged	-12654
▁premier	-12655
▁provoke	-12656
▁prowess	-12657
▁reacted	-12658
▁readily	-12659
▁remarks	-12660
▁reservo	-12661
▁scholar	-12662
▁seekers	-12663
▁smarter	-12664
▁telecom	-12665
▁trusted	-12666
▁tyranny	-12667
▁utility	-12668
▁utterly	-12669
▁varying	-12670
▁vessels	-12671
▁viewing	-12672
Americans	-12673
ordinated	-12674
regulated	-12675
rudential	-12676
sponsored	-12677
▁Americas	-12678
▁Botswana	-12679
▁Buddhist	-12680
▁Italians	-12681
▁Managing	-12682
▁Military	-12683
▁Province	-12684
▁activist	-12685
▁biofuels	-12686
▁bombings	-12687
▁composed	-12688
▁congress	-12689
▁consists	-12690
▁detained	-12691
▁diabetes	-12692
▁dividing	-12693
▁emotions	-12694
▁everyday	-12695
▁exposing	-12696
▁feedback	-12697
▁friction	-12698
▁hardship	-12699
▁hectares	-12700
▁incoming	-12701
▁infamous	-12702
▁location	-12703
▁messages	-12704
▁misunder	-12705
▁peculiar	-12706
▁polluted	-12707
▁populous	-12708
▁precious	-12709
▁prohibit	-12710
▁punitive	-12711
▁railways	-12712
▁refusing	-12713
▁register	-12714
▁reinvent	-12715
▁resolute	-12716
▁rigorous	-12717
▁scarcity	-12718
▁sizeable	-12719
▁skeptics	-12720
▁societal	-12721
▁succeeds	-12722
▁takeover	-12723
▁tempting	-12724
▁tolerant	-12725
ostrategic	-12726
▁Citigroup	-12727
▁Governing	-12728
▁Hurricane	-12729
▁Ministers	-12730
▁Officials	-12731
▁STOCKHOLM	-12732
▁Solutions	-12733
▁Universal	-12734
▁abilities	-12735
▁accompany	-12736
▁amendment	-12737
▁assembled	-12738
▁combining	-12739
▁confusing	-12740
▁constrain	-12741
▁correctly	-12742
▁delegates	-12743
▁denounced	-12744
▁designing	-12745
▁divergent	-12746
▁empowered	-12747
▁importers	-12748
▁importing	-12749
▁insisting	-12750
▁insolvent	-12751
▁landslide	-12752
▁languages	-12753
▁massively	-12754
▁parallels	-12755
▁paramount	-12756
▁peninsula	-12757
▁performed	-12758
▁plentiful	-12759
▁polluting	-12760
▁readiness	-12761
▁reformers	-12762
▁resembles	-12763
▁revealing	-12764
▁spiritual	-12765
▁supremacy	-12766
▁surprised	-12767
▁unrelated	-12768
▁utilities	-12769
▁violation	-12770
▁wealthier	-12771
▁wondering	-12772
conditional	-12773
▁Christians	-12774
▁absolutely	-12775
▁accumulate	-12776
▁compatible	-12777
▁complained	-12778
▁connecting	-12779
▁contingent	-12780
▁crossroads	-12781
▁deliberate	-12782
▁dimensions	-12783
▁distortion	-12784
▁empowering	-12785
▁incumbents	-12786
▁insurgency	-12787
▁invitation	-12788
▁liberation	-12789
▁objections	-12790
▁oppression	-12791
▁personally	-12792
▁plummeting	-12793
▁portfolios	-12794
▁projection	-12795
▁recoveries	-12796
▁skepticism	-12797
▁stabilized	-12798
▁substitute	-12799
▁unintended	-12800
▁unraveling	-12801
▁wastewater	-12802
▁appreciated	-12803
▁astonishing	-12804
▁backgrounds	-12805
▁calculation	-12806
▁celebration	-12807
▁citizenship	-12808
▁colonialism	-12809
▁constructed	-12810
▁cooperating	-12811
▁correlation	-12812
▁cultivating	-12813
▁diversified	-12814
▁forthcoming	-12815
▁limitations	-12816
▁mathematics	-12817
▁observation	-12818
▁overwhelmed	-12819
▁pessimistic	-12820
▁questioning	-12821
▁resolutions	-12822
▁specialists	-12823
▁sympathetic	-12824
▁transferred	-12825
▁underscored	-12826
globalization	-12827
▁consultation	-12828
▁deficiencies	-12829
▁exacerbating	-12830
▁governmental	-12831
▁hydrocarbons	-12832
▁incompatible	-12833
▁ratification	-12834
▁relentlessly	-12835
▁transferring	-12836
▁accommodative	-12837
▁civilizations	-12838
▁consolidating	-12839
▁contradiction	-12840
▁contradictory	-12841
▁mismanagement	-12842
De	-12843
GP	-12844
HP	-12845
IR	-12846
LO	-12847
ey	-12848
ez	-12849
gs	-12850
ju	-12851
vo	-12852
ANB	-12853
CCP	-12854
ENA	-12855
abs	-12856
ado	-12857
cio	-12858
een	-12859
eft	-12860
esa	-12861
far	-12862
gyz	-12863
ila	-12864
nai	-12865
oln	-12866
omy	-12867
oyu	-12868
rev	-12869
teo	-12870
tle	-12871
umi	-12872
unc	-12873
xon	-12874
▁3,	-12875
▁34	-12876
▁9,	-12877
▁EF	-12878
▁OX	-12879
▁PR	-12880
▁€2	-12881
Cold	-12882
GHAI	-12883
This	-12884
anch	-12885
arre	-12886
asef	-12887
aund	-12888
aust	-12889
chen	-12890
deep	-12891
emal	-12892
gans	-12893
gies	-12894
hent	-12895
holm	-12896
hrop	-12897
ifts	-12898
iped	-12899
olve	-12900
oper	-12901
plan	-12902
prot	-12903
ribe	-12904
rier	-12905
star	-12906
ucks	-12907
▁$11	-12908
▁($5	-12909
▁14.	-12910
▁189	-12911
▁190	-12912
▁27%	-12913
▁55%	-12914
▁FSB	-12915
▁Fac	-12916
▁Fox	-12917
▁Gil	-12918
▁Hua	-12919
▁IDB	-12920
▁Kat	-12921
▁Moz	-12922
▁Nak	-12923
▁Ott	-12924
▁Piñ	-12925
▁Ram	-12926
▁Red	-12927
▁Ret	-12928
▁Sib	-12929
▁Tam	-12930
▁Tig	-12931
▁Toc	-12932
▁Tro	-12933
▁Way	-12934
▁aro	-12935
▁bog	-12936
▁cri	-12937
▁dra	-12938
▁gay	-12939
▁lad	-12940
▁lin	-12941
▁pal	-12942
▁rub	-12943
▁spr	-12944
▁von	-12945
Saxon	-12946
There	-12947
acies	-12948
allow	-12949
annel	-12950
apego	-12951
arest	-12952
block	-12953
chnya	-12954
eness	-12955
icent	-12956
ilton	-12957
ivial	-12958
locut	-12959
matic	-12960
ourge	-12961
reate	-12962
ricts	-12963
stage	-12964
surge	-12965
swing	-12966
uinea	-12967
ulous	-12968
umble	-12969
uming	-12970
▁$1.4	-12971
▁1.7%	-12972
▁1945	-12973
▁2019	-12974
▁3.5%	-12975
▁Alas	-12976
▁Arms	-12977
▁BRIC	-12978
▁Carl	-12979
▁Conc	-12980
▁Dmit	-12981
▁Flor	-12982
▁Hans	-12983
▁Hiro	-12984
▁Hugo	-12985
▁Juan	-12986
▁Linc	-12987
▁Mitt	-12988
▁NCDs	-12989
▁Resp	-12990
▁Rest	-12991
▁SHAN	-12992
▁STEM	-12993
▁Sein	-12994
▁Sich	-12995
▁Supp	-12996
▁Turn	-12997
▁Viol	-12998
▁Well	-12999
▁bast	-13000
▁bull	-13001
▁busy	-13002
▁cham	-13003
▁cite	-13004
▁clou	-13005
▁drew	-13006
▁helm	-13007
▁inqu	-13008
▁invo	-13009
▁king	-13010
▁mamm	-13011
▁mend	-13012
▁mode	-13013
▁myst	-13014
▁owed	-13015
▁pour	-13016
▁quad	-13017
▁quar	-13018
▁rejo	-13019
▁ring	-13020
▁sche	-13021
▁tall	-13022
▁tape	-13023
▁thor	-13024
▁tick	-13025
▁tyco	-13026
▁wasn	-13027
▁wood	-13028
▁zeal	-13029
▁zomb	-13030
Africa	-13031
Indian	-13032
ceived	-13033
comple	-13034
eltsin	-13035
ensing	-13036
etting	-13037
hiness	-13038
person	-13039
reated	-13040
riends	-13041
second	-13042
tariff	-13043
ximity	-13044
▁1993,	-13045
▁2000’	-13046
▁2004.	-13047
▁5,000	-13048
▁Advis	-13049
▁Athen	-13050
▁Based	-13051
▁Bloom	-13052
▁Exche	-13053
▁Exxon	-13054
▁Filip	-13055
▁Force	-13056
▁Hence	-13057
▁Hindu	-13058
▁Kemal	-13059
▁Later	-13060
▁Moral	-13061
▁Parad	-13062
▁Rapid	-13063
▁Small	-13064
▁Urban	-13065
▁Uribe	-13066
▁abide	-13067
▁agent	-13068
▁bless	-13069
▁curve	-13070
▁dairy	-13071
▁defam	-13072
▁effic	-13073
▁envis	-13074
▁faire	-13075
▁farms	-13076
▁filed	-13077
▁float	-13078
▁grain	-13079
▁inert	-13080
▁inexp	-13081
▁knock	-13082
▁lingu	-13083
▁magaz	-13084
▁marsh	-13085
▁mayor	-13086
▁monso	-13087
▁motor	-13088
▁opted	-13089
▁outst	-13090
▁paths	-13091
▁pools	-13092
▁slide	-13093
▁sober	-13094
▁sorry	-13095
▁sorts	-13096
▁theor	-13097
▁unden	-13098
▁versa	-13099
▁voter	-13100
▁warns	-13101
Israeli	-13102
ardship	-13103
asefire	-13104
ensible	-13105
ettered	-13106
inating	-13107
inyamin	-13108
lective	-13109
managed	-13110
ordable	-13111
repared	-13112
ropical	-13113
ropower	-13114
secular	-13115
selling	-13116
thening	-13117
western	-13118
▁Carbon	-13119
▁Cities	-13120
▁Darwin	-13121
▁Deputy	-13122
▁Either	-13123
▁Guinea	-13124
▁Higher	-13125
▁Kyrgyz	-13126
▁Madrid	-13127
▁McCain	-13128
▁OXFORD	-13129
▁Piñera	-13130
▁Recogn	-13131
▁Regard	-13132
▁Terror	-13133
▁agrees	-13134
▁ancest	-13135
▁athlet	-13136
▁beacon	-13137
▁boldly	-13138
▁boosts	-13139
▁builds	-13140
▁column	-13141
▁crypto	-13142
▁disill	-13143
▁endure	-13144
▁entang	-13145
▁extrad	-13146
▁exuber	-13147
▁geared	-13148
▁indoor	-13149
▁intact	-13150
▁judged	-13151
▁lethal	-13152
▁metals	-13153
▁mirror	-13154
▁misses	-13155
▁motion	-13156
▁nurses	-13157
▁pieces	-13158
▁prosec	-13159
▁remedy	-13160
▁rounds	-13161
▁sevent	-13162
▁submar	-13163
▁theirs	-13164
▁whites	-13165
Semitism	-13166
breaking	-13167
centered	-13168
earnings	-13169
esterday	-13170
hinkable	-13171
iniscent	-13172
iscrimin	-13173
measured	-13174
personal	-13175
ropriate	-13176
▁Century	-13177
▁Challen	-13178
▁Chilean	-13179
▁Critics	-13180
▁Jacques	-13181
▁Judging	-13182
▁Kashmir	-13183
▁Lincoln	-13184
▁Medical	-13185
▁Sichuan	-13186
▁Stanley	-13187
▁Stephen	-13188
▁accepts	-13189
▁adapted	-13190
▁advised	-13191
▁approve	-13192
▁beneath	-13193
▁cholera	-13194
▁circles	-13195
▁clinics	-13196
▁commons	-13197
▁conform	-13198
▁costing	-13199
▁council	-13200
▁courses	-13201
▁decides	-13202
▁derived	-13203
▁despair	-13204
▁ensured	-13205
▁evening	-13206
▁fascism	-13207
▁feeding	-13208
▁fosters	-13209
▁herself	-13210
▁hostage	-13211
▁hurdles	-13212
▁impeded	-13213
▁impress	-13214
▁inherit	-13215
▁inhibit	-13216
▁lawyers	-13217
▁letting	-13218
▁longest	-13219
▁lowered	-13220
▁maximum	-13221
▁morally	-13222
▁nuanced	-13223
▁payroll	-13224
▁pockets	-13225
▁polling	-13226
▁precond	-13227
▁preempt	-13228
▁presupp	-13229
▁risking	-13230
▁rupture	-13231
▁scapego	-13232
▁solvent	-13233
▁specter	-13234
▁starkly	-13235
▁stature	-13236
▁stealth	-13237
▁strains	-13238
▁tapping	-13239
▁uniform	-13240
▁warrant	-13241
▁writers	-13242
▁wrought	-13243
autionary	-13244
itionally	-13245
renchment	-13246
uckerberg	-13247
▁2010-201	-13248
▁Abdullah	-13249
▁Chechnya	-13250
▁Emirates	-13251
▁Facility	-13252
▁Hamilton	-13253
▁Nigerian	-13254
▁SHANGHAI	-13255
▁Slovenia	-13256
▁academia	-13257
▁articles	-13258
▁brothers	-13259
▁critique	-13260
▁crossing	-13261
▁devising	-13262
▁embodies	-13263
▁exciting	-13264
▁fiscally	-13265
▁fortunes	-13266
▁gridlock	-13267
▁guerrill	-13268
▁hardline	-13269
▁incident	-13270
▁inclined	-13271
▁incurred	-13272
▁markedly	-13273
▁massacre	-13274
▁metaphor	-13275
▁narrowed	-13276
▁oriented	-13277
▁outgoing	-13278
▁overtake	-13279
▁patience	-13280
▁perilous	-13281
▁prevails	-13282
▁promotes	-13283
▁rainfall	-13284
▁regained	-13285
▁ruthless	-13286
▁senators	-13287
▁sessions	-13288
▁settings	-13289
▁subjects	-13290
▁tangible	-13291
▁villages	-13292
▁Amendment	-13293
▁Chongqing	-13294
▁Ethiopian	-13295
▁Exchequer	-13296
▁Himalayan	-13297
▁Hollywood	-13298
▁Implement	-13299
▁Musharraf	-13300
▁Stockholm	-13301
▁attending	-13302
▁autocrats	-13303
▁averaging	-13304
▁bloodshed	-13305
▁competent	-13306
▁comprised	-13307
▁conceived	-13308
▁criticize	-13309
▁decreased	-13310
▁depletion	-13311
▁deploying	-13312
▁detention	-13313
▁donations	-13314
▁employing	-13315
▁encompass	-13316
▁exceeding	-13317
▁excellent	-13318
▁excluding	-13319
▁incapable	-13320
▁incidents	-13321
▁installed	-13322
▁leveraged	-13323
▁mercantil	-13324
▁occupying	-13325
▁persuaded	-13326
▁pessimism	-13327
▁prevalent	-13328
▁procedure	-13329
▁proximity	-13330
▁railroads	-13331
▁religions	-13332
▁satellite	-13333
▁satisfied	-13334
▁sentences	-13335
▁spectacle	-13336
▁spillover	-13337
▁stagnated	-13338
▁turbulent	-13339
▁underwrit	-13340
▁unleashed	-13341
▁unusually	-13342
▁viability	-13343
established	-13344
▁Luxembourg	-13345
▁Solidarity	-13346
▁Statistics	-13347
▁Technology	-13348
▁accustomed	-13349
▁analytical	-13350
▁annualized	-13351
▁appearance	-13352
▁completing	-13353
▁critically	-13354
▁cyberspace	-13355
▁dependency	-13356
▁devastated	-13357
▁directives	-13358
▁downstream	-13359
▁grassroots	-13360
▁hydropower	-13361
▁interlocut	-13362
▁intervened	-13363
▁literature	-13364
▁manipulate	-13365
▁minimizing	-13366
▁moderation	-13367
▁originated	-13368
▁overshadow	-13369
▁pesticides	-13370
▁pragmatism	-13371
▁projecting	-13372
▁recipients	-13373
▁recovering	-13374
▁separately	-13375
▁simplistic	-13376
▁stubbornly	-13377
▁translated	-13378
▁valuations	-13379
▁xenophobic	-13380
independence	-13381
▁acquisition	-13382
▁battlefield	-13383
▁cornerstone	-13384
▁deteriorate	-13385
▁disillusion	-13386
▁establishes	-13387
▁expressions	-13388
▁ineffective	-13389
▁intervening	-13390
▁intractable	-13391
▁nationality	-13392
▁reminiscent	-13393
▁restoration	-13394
▁restrictive	-13395
▁spearheaded	-13396
▁speculators	-13397
▁statistical	-13398
▁unthinkable	-13399
establishment	-13400
▁Agricultural	-13401
▁Commonwealth	-13402
▁Unemployment	-13403
▁administered	-13404
▁artificially	-13405
▁attributable	-13406
▁conservatism	-13407
▁consolidated	-13408
▁constraining	-13409
▁continuation	-13410
▁demographics	-13411
▁disagreement	-13412
▁discouraging	-13413
▁explanations	-13414
▁geostrategic	-13415
▁inconsistent	-13416
▁incorporated	-13417
▁jeopardizing	-13418
▁prerequisite	-13419
▁resettlement	-13420
▁retrenchment	-13421
▁unimaginable	-13422
▁consultations	-13423
▁corresponding	-13424
▁demonstrators	-13425
▁deterioration	-13426
▁distinguished	-13427
▁entertainment	-13428
▁realistically	-13429
▁supranational	-13430
▁unconditional	-13431
▁unfortunately	-13432
▁disappointment	-13433
▁investigations	-13434
▁nanotechnology	-13435
▁organizational	-13436
▁extraordinarily	-13437
▁notwithstanding	-13438
▁technologically	-13439
▁transformations	-13440
.’	-13441
12	-13442
65	-13443
AM	-13444
FT	-13445
LE	-13446
Tr	-13447
bs	-13448
hn	-13449
hy	-13450
¥1	-13451
-90	-13452
20,	-13453
7%,	-13454
9%,	-13455
9%.	-13456
ART	-13457
Int	-13458
URG	-13459
ada	-13460
ads	-13461
agh	-13462
aky	-13463
ala	-13464
ask	-13465
aya	-13466
bad	-13467
bin	-13468
elf	-13469
gue	-13470
han	-13471
hye	-13472
iao	-13473
iko	-13474
irc	-13475
ona	-13476
opt	-13477
pel	-13478
pur	-13479
ser	-13480
uay	-13481
usk	-13482
vol	-13483
yss	-13484
▁Ak	-13485
▁BP	-13486
▁Id	-13487
▁da	-13488
▁fr	-13489
▁ub	-13490
-197	-13491
-20,	-13492
Iran	-13493
Make	-13494
Tube	-13495
acks	-13496
ajik	-13497
bear	-13498
best	-13499
door	-13500
enso	-13501
four	-13502
game	-13503
heid	-13504
hips	-13505
iday	-13506
ihil	-13507
ildu	-13508
inoc	-13509
inqu	-13510
ivik	-13511
late	-13512
meal	-13513
namo	-13514
okes	-13515
omer	-13516
rule	-13517
teen	-13518
tery	-13519
tisa	-13520
uese	-13521
ukas	-13522
unal	-13523
upid	-13524
warf	-13525
wart	-13526
▁$22	-13527
▁$25	-13528
▁$30	-13529
▁140	-13530
▁186	-13531
▁AIP	-13532
▁CBO	-13533
▁CCS	-13534
▁Dif	-13535
▁Eff	-13536
▁Ens	-13537
▁Gul	-13538
▁Han	-13539
▁III	-13540
▁Ins	-13541
▁Opt	-13542
▁PCA	-13543
▁Rab	-13544
▁Ris	-13545
▁Ser	-13546
▁Vir	-13547
▁Was	-13548
▁Yam	-13549
▁aqu	-13550
▁bag	-13551
▁bef	-13552
▁biz	-13553
▁coh	-13554
▁dat	-13555
▁dup	-13556
▁mel	-13557
▁tre	-13558
▁tru	-13559
Qaeda	-13560
achal	-13561
antic	-13562
asser	-13563
bines	-13564
const	-13565
diagn	-13566
grids	-13567
happy	-13568
heads	-13569
iaoyu	-13570
icate	-13571
ivism	-13572
izumi	-13573
juven	-13574
lance	-13575
looks	-13576
maker	-13577
onder	-13578
otine	-13579
otive	-13580
piece	-13581
pling	-13582
rable	-13583
richt	-13584
ánamo	-13585
▁0.3%	-13586
▁0.7%	-13587
▁1.3%	-13588
▁1967	-13589
▁1992	-13590
▁1993	-13591
▁1995	-13592
▁2.3%	-13593
▁7.4%	-13594
▁AfDB	-13595
▁BRCA	-13596
▁Coll	-13597
▁Dear	-13598
▁Else	-13599
▁Fred	-13600
▁Geun	-13601
▁Jere	-13602
▁Laos	-13603
▁Latv	-13604
▁Life	-13605
▁Mali	-13606
▁Mary	-13607
▁Niet	-13608
▁OPEC	-13609
▁Pand	-13610
▁Pass	-13611
▁Rico	-13612
▁Salv	-13613
▁Sett	-13614
▁UKIP	-13615
▁USSR	-13616
▁Uigh	-13617
▁Vict	-13618
▁Wood	-13619
▁Yang	-13620
▁akin	-13621
▁chun	-13622
▁cler	-13623
▁detr	-13624
▁diam	-13625
▁dose	-13626
▁ende	-13627
▁fans	-13628
▁fish	-13629
▁forc	-13630
▁hast	-13631
▁inad	-13632
▁lows	-13633
▁mold	-13634
▁mole	-13635
▁nice	-13636
▁nutr	-13637
▁pave	-13638
▁rice	-13639
▁rift	-13640
▁sand	-13641
▁sink	-13642
▁skew	-13643
▁slic	-13644
▁stip	-13645
▁unco	-13646
▁unst	-13647
▁unsu	-13648
arling	-13649
eaning	-13650
eneous	-13651
enment	-13652
ensohn	-13653
enting	-13654
erable	-13655
ernity	-13656
erpris	-13657
franch	-13658
funded	-13659
hammad	-13660
ifting	-13661
ionage	-13662
ipolar	-13663
ograms	-13664
ousing	-13665
paying	-13666
ricket	-13667
▁1900,	-13668
▁1978,	-13669
▁1990.	-13670
▁1996,	-13671
▁Apart	-13672
▁Basic	-13673
▁CELAC	-13674
▁Cairo	-13675
▁Charl	-13676
▁Chase	-13677
▁Gamal	-13678
▁Guard	-13679
▁Harry	-13680
▁Lukas	-13681
▁Maast	-13682
▁Maybe	-13683
▁Osama	-13684
▁Pence	-13685
▁Pinoc	-13686
▁Poles	-13687
▁Prior	-13688
▁Romer	-13689
▁Silva	-13690
▁Tajik	-13691
▁Unsur	-13692
▁Valls	-13693
▁Years	-13694
▁abyss	-13695
▁ballo	-13696
▁breed	-13697
▁centr	-13698
▁cents	-13699
▁cling	-13700
▁conve	-13701
▁cruel	-13702
▁debac	-13703
▁diets	-13704
▁dwarf	-13705
▁egreg	-13706
▁heter	-13707
▁lobby	-13708
▁loses	-13709
▁opens	-13710
▁paved	-13711
▁petty	-13712
▁purge	-13713
▁quota	-13714
▁recal	-13715
▁recyc	-13716
▁secre	-13717
▁sever	-13718
▁steer	-13719
▁stoke	-13720
▁suits	-13721
▁ubiqu	-13722
▁usage	-13723
▁wheat	-13724
African	-13725
Semitic	-13726
agogues	-13727
angered	-13728
climate	-13729
entials	-13730
focused	-13731
iaspora	-13732
issance	-13733
neutral	-13734
ocratic	-13735
overing	-13736
rafting	-13737
special	-13738
tisaari	-13739
uctions	-13740
▁Cather	-13741
▁Ending	-13742
▁Farage	-13743
▁Friday	-13744
▁Matteo	-13745
▁Monnet	-13746
▁Orange	-13747
▁Panama	-13748
▁Scient	-13749
▁Strait	-13750
▁addict	-13751
▁affair	-13752
▁anchor	-13753
▁ascend	-13754
▁aspire	-13755
▁balkan	-13756
▁blocks	-13757
▁buildu	-13758
▁clever	-13759
▁confed	-13760
▁dearth	-13761
▁defect	-13762
▁derive	-13763
▁dismal	-13764
▁elabor	-13765
▁equals	-13766
▁frenzy	-13767
▁hamper	-13768
▁havens	-13769
▁impart	-13770
▁incred	-13771
▁insurg	-13772
▁intend	-13773
▁intrig	-13774
▁length	-13775
▁lights	-13776
▁mature	-13777
▁meager	-13778
▁onward	-13779
▁poison	-13780
▁pounds	-13781
▁propel	-13782
▁recipe	-13783
▁repeal	-13784
▁revamp	-13785
▁spokes	-13786
▁storms	-13787
▁strife	-13788
▁switch	-13789
▁touted	-13790
▁tumult	-13791
▁upheld	-13792
▁varied	-13793
▁wasted	-13794
▁worthy	-13795
ceptible	-13796
cultural	-13797
ensively	-13798
neighbor	-13799
peaceful	-13800
property	-13801
standard	-13802
▁800,000	-13803
▁Breivik	-13804
▁Confron	-13805
▁Disease	-13806
▁Efforts	-13807
▁Experts	-13808
▁Florida	-13809
▁Koizumi	-13810
▁Nothing	-13811
▁Roughly	-13812
▁Syrians	-13813
▁Workers	-13814
▁Yeltsin	-13815
▁YouTube	-13816
▁applaud	-13817
▁arsenal	-13818
▁assimil	-13819
▁averted	-13820
▁bitcoin	-13821
▁bizarre	-13822
▁blaming	-13823
▁careers	-13824
▁cartels	-13825
▁chaotic	-13826
▁cocaine	-13827
▁condemn	-13828
▁dictate	-13829
▁divides	-13830
▁emotion	-13831
▁fantasy	-13832
▁fathers	-13833
▁greener	-13834
▁hackers	-13835
▁happily	-13836
▁harmony	-13837
▁highway	-13838
▁husband	-13839
▁inertia	-13840
▁instant	-13841
▁killers	-13842
▁marking	-13843
▁mergers	-13844
▁migrate	-13845
▁obliged	-13846
▁opposes	-13847
▁orchest	-13848
▁partial	-13849
▁permits	-13850
▁posture	-13851
▁primacy	-13852
▁pulling	-13853
▁quarrel	-13854
▁rallied	-13855
▁rejects	-13856
▁reshape	-13857
▁restaur	-13858
▁rolling	-13859
▁selfish	-13860
▁sharper	-13861
▁shelter	-13862
▁shouldn	-13863
▁smokers	-13864
▁symbols	-13865
▁trivial	-13866
▁turnout	-13867
▁uniting	-13868
▁updated	-13869
▁virtues	-13870
▁website	-13871
▁wounded	-13872
Palestine	-13873
aundering	-13874
etization	-13875
exporting	-13876
roductive	-13877
terrorism	-13878
ugoslavia	-13879
▁1997-199	-13880
▁Belgrade	-13881
▁Binyamin	-13882
▁Compared	-13883
▁Cristina	-13884
▁Domestic	-13885
▁Ensuring	-13886
▁External	-13887
▁Independ	-13888
▁Lawrence	-13889
▁Opportun	-13890
▁Rousseff	-13891
▁Standard	-13892
▁Standing	-13893
▁arriving	-13894
▁bacteria	-13895
▁burdened	-13896
▁coercion	-13897
▁conquest	-13898
▁deciding	-13899
▁delicate	-13900
▁develops	-13901
▁discount	-13902
▁drilling	-13903
▁dwellers	-13904
▁entrants	-13905
▁equation	-13906
▁factions	-13907
▁fighters	-13908
▁fostered	-13909
▁goodwill	-13910
▁handling	-13911
▁illusion	-13912
▁matching	-13913
▁maturity	-13914
▁morality	-13915
▁muscular	-13916
▁observer	-13917
▁offenses	-13918
▁operated	-13919
▁pioneers	-13920
▁planners	-13921
▁prestige	-13922
▁proceeds	-13923
▁provider	-13924
▁quantity	-13925
▁redefine	-13926
▁relation	-13927
▁rendered	-13928
▁responds	-13929
▁rewarded	-13930
▁sciences	-13931
▁shipping	-13932
▁squarely	-13933
▁stepping	-13934
▁stricter	-13935
▁syndrome	-13936
▁trending	-13937
▁turbines	-13938
▁unifying	-13939
▁vigilant	-13940
ignificant	-13941
ribusiness	-13942
▁Ahtisaari	-13943
▁Catherine	-13944
▁Christine	-13945
▁Continent	-13946
▁Holocaust	-13947
▁Increased	-13948
▁Lithuania	-13949
▁abolished	-13950
▁abolition	-13951
▁abundance	-13952
▁advertise	-13953
▁alleviate	-13954
▁asserting	-13955
▁automatic	-13956
▁bolstered	-13957
▁brilliant	-13958
▁ceasefire	-13959
▁collapses	-13960
▁colleague	-13961
▁compelled	-13962
▁concludes	-13963
▁confusion	-13964
▁consuming	-13965
▁convicted	-13966
▁denuclear	-13967
▁detriment	-13968
▁disrupted	-13969
▁districts	-13970
▁egregious	-13971
▁enshrined	-13972
▁espionage	-13973
▁ethnicity	-13974
▁execution	-13975
▁exercised	-13976
▁explosive	-13977
▁formulate	-13978
▁fortunate	-13979
▁fulfilled	-13980
▁humankind	-13981
▁illusions	-13982
▁inaugural	-13983
▁intensive	-13984
▁manifesto	-13985
▁mentality	-13986
▁nostalgia	-13987
▁obsession	-13988
▁outsiders	-13989
▁perpetual	-13990
▁pluralism	-13991
▁prompting	-13992
▁radiation	-13993
▁recalling	-13994
▁regaining	-13995
▁reshaping	-13996
▁retaining	-13997
▁reversals	-13998
▁rivalries	-13999
▁signaling	-14000
▁subjected	-14001
▁travelers	-14002
▁underlies	-14003
functioning	-14004
▁Communists	-14005
▁Governance	-14006
▁Guantánamo	-14007
▁Kyrgyzstan	-14008
▁Maastricht	-14009
▁Portuguese	-14010
▁Regardless	-14011
▁Resistance	-14012
▁Uzbekistan	-14013
▁Venezuelan	-14014
▁Wolfensohn	-14015
▁Zuckerberg	-14016
▁admiration	-14017
▁antibiotic	-14018
▁broadening	-14019
▁categories	-14020
▁collapsing	-14021
▁communiqué	-14022
▁competence	-14023
▁continuity	-14024
▁convenient	-14025
▁culturally	-14026
▁defamation	-14027
▁depressing	-14028
▁designated	-14029
▁directions	-14030
▁dissidents	-14031
▁endangered	-14032
▁hardliners	-14033
▁harmonious	-14034
▁healthcare	-14035
▁helicopter	-14036
▁incursions	-14037
▁internally	-14038
▁overvalued	-14039
▁pioneering	-14040
▁practition	-14041
▁preferable	-14042
▁properties	-14043
▁quantities	-14044
▁reelection	-14045
▁stagnating	-14046
▁structured	-14047
▁suggestion	-14048
▁tendencies	-14049
▁unfettered	-14050
▁Nationalist	-14051
▁Recognizing	-14052
▁Settlements	-14053
▁Tocqueville	-14054
▁articulated	-14055
▁automobiles	-14056
▁chronically	-14057
▁circulation	-14058
▁coincidence	-14059
▁compromised	-14060
▁consistency	-14061
▁contemplate	-14062
▁contracting	-14063
▁convenience	-14064
▁credentials	-14065
▁criticizing	-14066
▁description	-14067
▁devastation	-14068
▁dismantling	-14069
▁examination	-14070
▁facilitates	-14071
▁humiliating	-14072
▁imperialism	-14073
▁influencing	-14074
▁intelligent	-14075
▁interpreted	-14076
▁legislators	-14077
▁manipulated	-14078
▁marketplace	-14079
▁meaningless	-14080
▁politicized	-14081
▁preventable	-14082
▁proceedings	-14083
▁refinancing	-14084
▁remittances	-14085
▁subsidizing	-14086
▁subsistence	-14087
▁supervisory	-14088
▁susceptible	-14089
▁technically	-14090
▁Commissioner	-14091
▁associations	-14092
▁disappointed	-14093
▁enthusiastic	-14094
▁incompetence	-14095
▁isolationism	-14096
▁persistently	-14097
▁prescription	-14098
▁questionable	-14099
▁reinvigorate	-14100
▁acknowledging	-14101
▁clearinghouse	-14102
▁complications	-14103
▁conversations	-14104
▁interlocutors	-14105
▁investigating	-14106
▁philosophical	-14107
▁unilateralism	-14108
▁Reconstruction	-14109
▁Unsurprisingly	-14110
▁cryptocurrency	-14111
▁interdependent	-14112
▁intermediation	-14113
▁radicalization	-14114
▁sophistication	-14115
▁understandably	-14116
)?	-14117
10	-14118
An	-14119
BS	-14120
FP	-14121
HC	-14122
MA	-14123
OE	-14124
PE	-14125
Pe	-14126
TT	-14127
To	-14128
VA	-14129
WF	-14130
ho	-14131
vy	-14132
ão	-14133
és	-14134
ür	-14135
▁—	-14136
2.5	-14137
6%.	-14138
AGO	-14139
ARP	-14140
Big	-14141
For	-14142
Our	-14143
SBC	-14144
VER	-14145
agm	-14146
avi	-14147
bar	-14148
bet	-14149
cat	-14150
ctu	-14151
dog	-14152
eor	-14153
eus	-14154
fit	-14155
gel	-14156
ipp	-14157
iya	-14158
iza	-14159
lla	-14160
ofi	-14161
ool	-14162
pat	-14163
ref	-14164
unn	-14165
yer	-14166
▁29	-14167
▁44	-14168
▁47	-14169
▁5,	-14170
▁55	-14171
▁9/	-14172
▁Ce	-14173
▁Da	-14174
▁HP	-14175
▁Ho	-14176
▁Ib	-14177
▁SP	-14178
BURG	-14179
Comm	-14180
Four	-14181
Pesa	-14182
THEN	-14183
abad	-14184
aidu	-14185
arag	-14186
arck	-14187
ardo	-14188
bond	-14189
conc	-14190
data	-14191
dong	-14192
dule	-14193
egal	-14194
eins	-14195
enei	-14196
evol	-14197
fail	-14198
gery	-14199
held	-14200
igan	-14201
igin	-14202
imer	-14203
imon	-14204
inda	-14205
ipay	-14206
iral	-14207
leph	-14208
lude	-14209
ohan	-14210
onge	-14211
paid	-14212
phas	-14213
poor	-14214
pric	-14215
prov	-14216
raid	-14217
sent	-14218
turn	-14219
usan	-14220
week	-14221
▁$12	-14222
▁$18	-14223
▁$90	-14224
▁0.2	-14225
▁1.1	-14226
▁15,	-14227
▁180	-14228
▁183	-14229
▁250	-14230
▁37%	-14231
▁52%	-14232
▁6%.	-14233
▁600	-14234
▁7%.	-14235
▁700	-14236
▁ANC	-14237
▁Aqu	-14238
▁Bob	-14239
▁Chu	-14240
▁Cow	-14241
▁GBA	-14242
▁Joe	-14243
▁MAN	-14244
▁Mae	-14245
▁Mot	-14246
▁PBC	-14247
▁RMB	-14248
▁Sho	-14249
▁Van	-14250
▁Ven	-14251
▁Yah	-14252
▁cod	-14253
▁dil	-14254
▁din	-14255
▁dot	-14256
▁gal	-14257
▁gro	-14258
▁hoc	-14259
▁lax	-14260
▁mad	-14261
▁mos	-14262
▁nut	-14263
▁obl	-14264
▁rip	-14265
▁row	-14266
▁sab	-14267
▁tip	-14268
▁vit	-14269
▁woe	-14270
about	-14271
ammar	-14272
annie	-14273
ansas	-14274
apter	-14275
arbon	-14276
arded	-14277
aware	-14278
benef	-14279
blood	-14280
chant	-14281
entry	-14282
ernet	-14283
gical	-14284
ginia	-14285
iency	-14286
ifers	-14287
iocre	-14288
irmed	-14289
labor	-14290
otism	-14291
overe	-14292
overy	-14293
oving	-14294
ptive	-14295
riers	-14296
rooms	-14297
rying	-14298
steps	-14299
super	-14300
tight	-14301
umbia	-14302
ustry	-14303
xtric	-14304
▁($1.	-14305
▁1.5°	-14306
▁1.8%	-14307
▁1973	-14308
▁20%,	-14309
▁3.6%	-14310
▁7.5%	-14311
▁Arun	-14312
▁Bism	-14313
▁Card	-14314
▁Comb	-14315
▁Come	-14316
▁ESDP	-14317
▁HSBC	-14318
▁Jack	-14319
▁Jobs	-14320
▁Kham	-14321
▁Maur	-14322
▁Meas	-14323
▁Navy	-14324
▁Need	-14325
▁Pres	-14326
▁Till	-14327
▁Yale	-14328
▁agro	-14329
▁begg	-14330
▁bind	-14331
▁bird	-14332
▁boyc	-14333
▁coff	-14334
▁defy	-14335
▁disd	-14336
▁disg	-14337
▁drow	-14338
▁ensn	-14339
▁evid	-14340
▁file	-14341
▁flam	-14342
▁fold	-14343
▁glut	-14344
▁hair	-14345
▁kids	-14346
▁loom	-14347
▁loop	-14348
▁mine	-14349
▁morp	-14350
▁navy	-14351
▁obso	-14352
▁pair	-14353
▁peas	-14354
▁plut	-14355
▁prey	-14356
▁seam	-14357
▁stro	-14358
▁tilt	-14359
▁vari	-14360
▁walk	-14361
-1990’	-14362
access	-14363
agmire	-14364
akable	-14365
arding	-14366
author	-14367
collar	-14368
concil	-14369
conian	-14370
ctuary	-14371
elcome	-14372
etched	-14373
father	-14374
giving	-14375
idding	-14376
inhart	-14377
itated	-14378
itized	-14379
licity	-14380
oliday	-14381
orient	-14382
parent	-14383
phones	-14384
placed	-14385
roeder	-14386
ronics	-14387
sovere	-14388
threat	-14389
ulates	-14390
untary	-14391
usalem	-14392
weight	-14393
worthy	-14394
▁1920’	-14395
▁1950,	-14396
▁1971,	-14397
▁1977,	-14398
▁1980.	-14399
▁1984,	-14400
▁1989.	-14401
▁2040,	-14402
▁Abbas	-14403
▁Armed	-14404
▁Aside	-14405
▁Eston	-14406
▁Feder	-14407
▁Fight	-14408
▁Grand	-14409
▁Hamid	-14410
▁Innov	-14411
▁Integ	-14412
▁Janet	-14413
▁Laden	-14414
▁Owing	-14415
▁Press	-14416
▁Price	-14417
▁Reduc	-14418
▁Shell	-14419
▁Short	-14420
▁Study	-14421
▁Total	-14422
▁clamp	-14423
▁datab	-14424
▁doses	-14425
▁downs	-14426
▁drama	-14427
[...]
